unsigned char sin_predictor_quantized_tflite[] = {
  0x20, 0x00, 0x00, 0x00, 0x54, 0x46, 0x4c, 0x33, 0x00, 0x00, 0x00, 0x00, 
  0x14, 0x00, 0x20, 0x00, 0x1c, 0x00, 0x18, 0x00, 0x14, 0x00, 0x10, 0x00, 
  0x0c, 0x00, 0x00, 0x00, 0x08, 0x00, 0x04, 0x00, 0x14, 0x00, 0x00, 0x00, 
  0x1c, 0x00, 0x00, 0x00, 0x98, 0x00, 0x00, 0x00, 0x18, 0x01, 0x00, 0x00, 
  0x28, 0x14, 0x00, 0x00, 0x38, 0x14, 0x00, 0x00, 0x14, 0x1f, 0x00, 0x00, 
  0x03, 0x00, 0x00, 0x00, 0x01, 0x00, 0x00, 0x00, 0x10, 0x00, 0x00, 0x00, 
  0x00, 0x00, 0x0a, 0x00, 0x10, 0x00, 0x0c, 0x00, 0x08, 0x00, 0x04, 0x00, 
  0x0a, 0x00, 0x00, 0x00, 0x0c, 0x00, 0x00, 0x00, 0x1c, 0x00, 0x00, 0x00, 
  0x3c, 0x00, 0x00, 0x00, 0x0f, 0x00, 0x00, 0x00, 0x73, 0x65, 0x72, 0x76, 
  0x69, 0x6e, 0x67, 0x5f, 0x64, 0x65, 0x66, 0x61, 0x75, 0x6c, 0x74, 0x00, 
  0x01, 0x00, 0x00, 0x00, 0x04, 0x00, 0x00, 0x00, 0x68, 0xff, 0xff, 0xff, 
  0x06, 0x00, 0x00, 0x00, 0x04, 0x00, 0x00, 0x00, 0x08, 0x00, 0x00, 0x00, 
  0x6f, 0x75, 0x74, 0x70, 0x75, 0x74, 0x5f, 0x30, 0x00, 0x00, 0x00, 0x00, 
  0x01, 0x00, 0x00, 0x00, 0x04, 0x00, 0x00, 0x00, 0xa6, 0xec, 0xff, 0xff, 
  0x04, 0x00, 0x00, 0x00, 0x0f, 0x00, 0x00, 0x00, 0x6b, 0x65, 0x72, 0x61, 
  0x73, 0x5f, 0x74, 0x65, 0x6e, 0x73, 0x6f, 0x72, 0x5f, 0x31, 0x35, 0x00, 
  0x03, 0x00, 0x00, 0x00, 0x5c, 0x00, 0x00, 0x00, 0x2c, 0x00, 0x00, 0x00, 
  0x04, 0x00, 0x00, 0x00, 0xb8, 0xff, 0xff, 0xff, 0x0a, 0x00, 0x00, 0x00, 
  0x04, 0x00, 0x00, 0x00, 0x13, 0x00, 0x00, 0x00, 0x43, 0x4f, 0x4e, 0x56, 
  0x45, 0x52, 0x53, 0x49, 0x4f, 0x4e, 0x5f, 0x4d, 0x45, 0x54, 0x41, 0x44, 
  0x41, 0x54, 0x41, 0x00, 0xdc, 0xff, 0xff, 0xff, 0x09, 0x00, 0x00, 0x00, 
  0x04, 0x00, 0x00, 0x00, 0x13, 0x00, 0x00, 0x00, 0x6d, 0x69, 0x6e, 0x5f, 
  0x72, 0x75, 0x6e, 0x74, 0x69, 0x6d, 0x65, 0x5f, 0x76, 0x65, 0x72, 0x73, 
  0x69, 0x6f, 0x6e, 0x00, 0x08, 0x00, 0x0c, 0x00, 0x08, 0x00, 0x04, 0x00, 
  0x08, 0x00, 0x00, 0x00, 0x08, 0x00, 0x00, 0x00, 0x04, 0x00, 0x00, 0x00, 
  0x13, 0x00, 0x00, 0x00, 0x6d, 0x69, 0x6e, 0x5f, 0x72, 0x75, 0x6e, 0x74, 
  0x69, 0x6d, 0x65, 0x5f, 0x76, 0x65, 0x72, 0x73, 0x69, 0x6f, 0x6e, 0x00, 
  0x0b, 0x00, 0x00, 0x00, 0x0c, 0x13, 0x00, 0x00, 0x04, 0x13, 0x00, 0x00, 
  0xb4, 0x12, 0x00, 0x00, 0x9c, 0x02, 0x00, 0x00, 0xcc, 0x00, 0x00, 0x00, 
  0xc4, 0x00, 0x00, 0x00, 0xbc, 0x00, 0x00, 0x00, 0xb4, 0x00, 0x00, 0x00, 
  0x94, 0x00, 0x00, 0x00, 0x74, 0x00, 0x00, 0x00, 0x04, 0x00, 0x00, 0x00, 
  0x76, 0xed, 0xff, 0xff, 0x04, 0x00, 0x00, 0x00, 0x60, 0x00, 0x00, 0x00, 
  0x0c, 0x00, 0x00, 0x00, 0x08, 0x00, 0x0e, 0x00, 0x08, 0x00, 0x04, 0x00, 
  0x08, 0x00, 0x00, 0x00, 0x10, 0x00, 0x00, 0x00, 0x28, 0x00, 0x00, 0x00, 
  0x00, 0x00, 0x06, 0x00, 0x08, 0x00, 0x04, 0x00, 0x06, 0x00, 0x00, 0x00, 
  0x04, 0x00, 0x00, 0x00, 0x01, 0x00, 0x00, 0x00, 0xeb, 0x03, 0x00, 0x00, 
  0x0c, 0x00, 0x18, 0x00, 0x14, 0x00, 0x10, 0x00, 0x0c, 0x00, 0x04, 0x00, 
  0x0c, 0x00, 0x00, 0x00, 0xac, 0x19, 0xcc, 0x7a, 0x56, 0xad, 0x73, 0x33, 
  0x02, 0x00, 0x00, 0x00, 0x02, 0x00, 0x00, 0x00, 0x04, 0x00, 0x00, 0x00, 
  0x06, 0x00, 0x00, 0x00, 0x32, 0x2e, 0x31, 0x38, 0x2e, 0x30, 0x00, 0x00, 
  0xe2, 0xed, 0xff, 0xff, 0x04, 0x00, 0x00, 0x00, 0x10, 0x00, 0x00, 0x00, 
  0x00, 0x00, 0x00, 0x00, 0x00, 0x00, 0x00, 0x00, 0x00, 0x00, 0x00, 0x00, 
  0x00, 0x00, 0x00, 0x00, 0xfe, 0xed, 0xff, 0xff, 0x04, 0x00, 0x00, 0x00, 
  0x10, 0x00, 0x00, 0x00, 0x31, 0x2e, 0x31, 0x34, 0x2e, 0x30, 0x00, 0x00, 
  0x00, 0x00, 0x00, 0x00, 0x00, 0x00, 0x00, 0x00, 0x4c, 0xed, 0xff, 0xff, 
  0x50, 0xed, 0xff, 0xff, 0x54, 0xed, 0xff, 0xff, 0x26, 0xee, 0xff, 0xff, 
  0x04, 0x00, 0x00, 0x00, 0xc0, 0x01, 0x00, 0x00, 0x34, 0x44, 0x7f, 0x35, 
  0x46, 0xc8, 0x9c, 0x0c, 0x2a, 0x3d, 0x81, 0x6e, 0xda, 0x46, 0x7f, 0x43, 
  0xa1, 0x3f, 0x59, 0x0a, 0x5d, 0x92, 0x59, 0x47, 0x38, 0x23, 0x4c, 0x7f, 
  0x9b, 0x81, 0x50, 0xd9, 0xa2, 0x8a, 0x46, 0xb3, 0x81, 0x03, 0x25, 0xf7, 
  0xeb, 0x41, 0x81, 0x1a, 0xf6, 0x53, 0x84, 0x25, 0xb0, 0x3b, 0x13, 0x34, 
  0x19, 0xd2, 0x7f, 0xa6, 0x81, 0xa0, 0x94, 0xe2, 0xf1, 0xa7, 0x50, 0x81, 
  0x9a, 0xdf, 0xd1, 0xb9, 0x2a, 0x0d, 0x66, 0x81, 0x75, 0x36, 0xe1, 0xda, 
  0x3c, 0x81, 0x32, 0xc2, 0x88, 0xf0, 0x15, 0x2c, 0xfa, 0x68, 0x81, 0x6d, 
  0xf0, 0x01, 0x03, 0x7f, 0x24, 0x02, 0x95, 0xae, 0x94, 0xd5, 0xaf, 0xdc, 
  0x5b, 0x2f, 0x81, 0x7b, 0x1c, 0x7f, 0x79, 0x4e, 0xf7, 0x72, 0x03, 0x94, 
  0x7f, 0x4f, 0x33, 0x87, 0x01, 0x3a, 0x73, 0xbf, 0x03, 0xc9, 0x7f, 0x60, 
  0xf3, 0xed, 0x91, 0x3b, 0x0e, 0xcb, 0x48, 0x81, 0x1c, 0xb3, 0xad, 0x81, 
  0xf1, 0x24, 0x25, 0x63, 0x81, 0x5b, 0x5e, 0x10, 0xc6, 0x4e, 0x2b, 0x7f, 
  0x50, 0x5c, 0x0c, 0xa4, 0x30, 0x9d, 0xfd, 0xdb, 0x7f, 0x48, 0x8b, 0x0f, 
  0xbf, 0x7f, 0x40, 0x7e, 0x4d, 0x1a, 0x39, 0x88, 0x94, 0xcd, 0xa7, 0xbc, 
  0xe6, 0x7f, 0x63, 0xa4, 0xc9, 0x5e, 0x7f, 0x72, 0x31, 0xbb, 0x1b, 0xf9, 
  0x75, 0xed, 0x78, 0x46, 0x81, 0x7d, 0x7f, 0x03, 0xe5, 0x02, 0xc1, 0xeb, 
  0x27, 0xca, 0x56, 0xee, 0x81, 0x0c, 0x64, 0x04, 0x7e, 0xbd, 0x75, 0x81, 
  0x51, 0xcb, 0x42, 0x9b, 0x3d, 0x8f, 0x1d, 0x99, 0x81, 0x6b, 0x1f, 0x81, 
  0x16, 0x20, 0x10, 0x77, 0x68, 0x7f, 0x06, 0x7d, 0x5d, 0x5d, 0xee, 0xbe, 
  0x34, 0x81, 0x51, 0x1d, 0x47, 0x01, 0xf8, 0xd9, 0x7f, 0x53, 0x1c, 0xc8, 
  0xed, 0x54, 0x30, 0x38, 0x87, 0x7d, 0x7f, 0xca, 0xa8, 0x8b, 0xf1, 0x81, 
  0x84, 0xed, 0x59, 0x98, 0x48, 0x1b, 0x2e, 0x41, 0x7f, 0x46, 0x78, 0x63, 
  0x7f, 0x9f, 0xfa, 0x81, 0x65, 0xe2, 0xd2, 0x39, 0x6e, 0x30, 0x05, 0x7f, 
  0x84, 0x7f, 0x4c, 0x83, 0xdc, 0xec, 0x93, 0xac, 0x1f, 0x21, 0x7f, 0xc5, 
  0x61, 0x27, 0x81, 0x40, 0x6c, 0x7f, 0xb7, 0xed, 0x3c, 0x7f, 0x6d, 0x11, 
  0xaa, 0x42, 0xf5, 0x10, 0x7f, 0x4b, 0x4d, 0x76, 0xdf, 0xc4, 0x59, 0xd3, 
  0x78, 0x16, 0xdc, 0xbc, 0x7f, 0x1a, 0xa4, 0x4c, 0x81, 0xd6, 0x94, 0x8b, 
  0xcf, 0x09, 0x31, 0x0d, 0xd1, 0xcf, 0xc6, 0x81, 0xd8, 0xbe, 0xc8, 0xf8, 
  0x16, 0x7f, 0xa3, 0x81, 0x85, 0x65, 0x99, 0xfb, 0xf4, 0x5c, 0x43, 0x81, 
  0x6f, 0xba, 0xc9, 0x58, 0x33, 0x9c, 0xac, 0x79, 0x81, 0xc9, 0x5e, 0xb4, 
  0x0b, 0x5c, 0x81, 0xbb, 0x9a, 0xb9, 0x8e, 0xb6, 0x8e, 0xe6, 0xfa, 0x81, 
  0x12, 0x72, 0x7f, 0xcb, 0x32, 0x37, 0x90, 0xae, 0x5d, 0x50, 0x81, 0xa4, 
  0x7c, 0x47, 0xcf, 0xb0, 0x7f, 0xd2, 0xa8, 0x5e, 0xcc, 0xf8, 0xcb, 0x7f, 
  0x77, 0x65, 0xf3, 0x00, 0x0a, 0x17, 0x81, 0x89, 0xf1, 0xc7, 0x5b, 0x86, 
  0x50, 0xeb, 0x81, 0x6a, 0xbf, 0x97, 0xca, 0x7f, 0x0e, 0x69, 0x7f, 0xc5, 
  0xf9, 0x89, 0x1f, 0x67, 0xfd, 0xb1, 0x39, 0x44, 0x7f, 0x73, 0x7f, 0x66, 
  0xa9, 0xbe, 0xf4, 0xcf, 0x99, 0x1f, 0x66, 0x47, 0x81, 0x44, 0x24, 0x23, 
  0xf2, 0xef, 0xff, 0xff, 0x04, 0x00, 0x00, 0x00, 0x00, 0x10, 0x00, 0x00, 
  0x7e, 0x5f, 0x94, 0x7b, 0x68, 0xb9, 0xbf, 0x9a, 0x81, 0x4f, 0x12, 0x76, 
  0x84, 0xb2, 0xa6, 0xba, 0xd6, 0xbb, 0x2e, 0x4b, 0x50, 0x6c, 0xb1, 0x2b, 
  0x09, 0x25, 0x2c, 0x2e, 0x38, 0xa0, 0xc0, 0xe3, 0x01, 0x36, 0x76, 0xf2, 
  0xa2, 0x8e, 0xe6, 0x8f, 0xc6, 0xbd, 0xed, 0x60, 0x9b, 0x37, 0xd6, 0x5e, 
  0xaf, 0x2b, 0x32, 0x17, 0x73, 0xf0, 0xb7, 0x16, 0x84, 0x5f, 0x84, 0x37, 
  0xe0, 0xc2, 0xe2, 0x09, 0xdf, 0x09, 0x5f, 0x79, 0xe8, 0x9e, 0xb7, 0xd2, 
  0xb0, 0x08, 0x64, 0xe9, 0x34, 0x11, 0xd1, 0x5c, 0xbf, 0xc5, 0xc0, 0x53, 
  0xd7, 0x41, 0x25, 0x28, 0x7a, 0x97, 0xd0, 0x81, 0xcb, 0xf8, 0xe6, 0xc7, 
  0x4b, 0x31, 0xda, 0x12, 0x66, 0x45, 0x94, 0x23, 0x05, 0xcb, 0x59, 0xba, 
  0xc2, 0xe4, 0x76, 0xf3, 0xd7, 0xae, 0x39, 0x6b, 0x60, 0x3e, 0x7c, 0xb7, 
  0x85, 0x25, 0x29, 0xb1, 0xbc, 0x0b, 0x8a, 0xf0, 0x7c, 0x13, 0xc8, 0x69, 
  0xb8, 0x62, 0x37, 0x84, 0x16, 0x90, 0x03, 0xb3, 0x7a, 0x0f, 0x30, 0x04, 
  0x23, 0x96, 0x9c, 0xd1, 0x2a, 0x36, 0x2d, 0xff, 0x7f, 0xde, 0xa9, 0xfd, 
  0x10, 0x59, 0x7d, 0xdb, 0x8b, 0x8e, 0xaf, 0x7a, 0x26, 0xb5, 0x3a, 0x08, 
  0xac, 0x65, 0x4f, 0x4d, 0x23, 0xf2, 0x27, 0xa8, 0xab, 0x0a, 0x08, 0xd2, 
  0x8b, 0xf3, 0x43, 0x28, 0xd6, 0xf0, 0x2f, 0x37, 0x3e, 0xa2, 0x33, 0x59, 
  0xa0, 0xff, 0xa7, 0x93, 0xb4, 0x0e, 0x81, 0xf7, 0x43, 0x27, 0x90, 0x3a, 
  0x89, 0xba, 0xb2, 0xa2, 0x2c, 0xfe, 0xc4, 0x21, 0xe6, 0x6e, 0x49, 0x36, 
  0x31, 0xf5, 0xba, 0xf8, 0x43, 0xec, 0xcf, 0x96, 0xf1, 0xb3, 0x68, 0xd5, 
  0x89, 0x0d, 0xa4, 0x6a, 0x0f, 0x49, 0x8f, 0x50, 0xd4, 0x5d, 0x5b, 0xcc, 
  0x71, 0x38, 0xe0, 0xbf, 0x59, 0x56, 0xb1, 0xd5, 0x82, 0x9e, 0x6d, 0xaf, 
  0xa2, 0x0c, 0x02, 0x89, 0x7f, 0x7e, 0xc0, 0xbb, 0x09, 0x99, 0xd1, 0x3d, 
  0x95, 0x2a, 0x92, 0xb2, 0xb5, 0x9e, 0xed, 0xe5, 0x93, 0x51, 0x6e, 0xac, 
  0xb5, 0x9d, 0x49, 0x7b, 0x81, 0xe8, 0xa9, 0x25, 0x17, 0x02, 0xa8, 0xb7, 
  0x92, 0xb0, 0x2b, 0x92, 0x3c, 0x06, 0x7f, 0xe0, 0x0e, 0xf4, 0x8a, 0xca, 
  0x40, 0x7e, 0x41, 0xcb, 0x77, 0x8e, 0x2b, 0xf0, 0x4c, 0x25, 0x07, 0x2d, 
  0xfb, 0xec, 0xd6, 0x62, 0x27, 0xa0, 0xc0, 0x30, 0x3c, 0xda, 0x1f, 0x65, 
  0x79, 0x5e, 0x34, 0x75, 0x43, 0x04, 0x06, 0x40, 0x6f, 0xf6, 0x09, 0xe1, 
  0xe0, 0x50, 0x7d, 0x3c, 0xe0, 0x25, 0x98, 0xf7, 0x1a, 0x7e, 0xa4, 0xd3, 
  0x8b, 0x1f, 0xc1, 0x63, 0xd6, 0xfc, 0x81, 0xaf, 0x27, 0x7b, 0x5a, 0x3b, 
  0xbf, 0x04, 0x62, 0x6d, 0xcd, 0x16, 0x5a, 0x19, 0xa9, 0xfd, 0x8b, 0xf5, 
  0xa6, 0xf1, 0x2a, 0x67, 0xb5, 0xed, 0x5c, 0x26, 0xac, 0x4b, 0xfb, 0x76, 
  0x2a, 0x14, 0x64, 0x5a, 0x17, 0x50, 0x86, 0xe8, 0x07, 0x14, 0x8f, 0x5c, 
  0x98, 0x92, 0x40, 0xdd, 0x42, 0xdd, 0x44, 0xdf, 0xcf, 0xf5, 0xc9, 0x03, 
  0x35, 0xaa, 0x7f, 0x4f, 0x67, 0xb7, 0x4f, 0x9a, 0xed, 0xa6, 0x3b, 0x0f, 
  0xc4, 0x11, 0x1b, 0x2c, 0xa7, 0x54, 0x42, 0x89, 0xf9, 0xc3, 0x0e, 0xeb, 
  0xd8, 0x5b, 0x1f, 0x62, 0xf7, 0x2f, 0x2f, 0x64, 0x55, 0x47, 0x96, 0x51, 
  0xb2, 0x66, 0xf1, 0x3e, 0x85, 0x1c, 0x76, 0x98, 0xb8, 0xfa, 0x93, 0xdb, 
  0xbc, 0xac, 0xd1, 0xe1, 0x6a, 0x09, 0x8f, 0xc4, 0xe1, 0x6e, 0x19, 0xdb, 
  0xad, 0x4e, 0x92, 0xde, 0x93, 0x40, 0xa7, 0x93, 0x14, 0xec, 0x52, 0xcd, 
  0x1c, 0x14, 0x0e, 0x75, 0x55, 0x01, 0x6a, 0x41, 0x81, 0x55, 0xc2, 0x89, 
  0x89, 0xf5, 0xe7, 0x81, 0x1d, 0xbd, 0x5c, 0xa9, 0xd5, 0x7d, 0xe1, 0x4e, 
  0x94, 0xe8, 0x93, 0xcb, 0xc1, 0x51, 0x0d, 0xd3, 0xe7, 0xff, 0x3b, 0x36, 
  0x40, 0x25, 0x1f, 0xde, 0x7e, 0x82, 0xef, 0x9f, 0x64, 0x9f, 0xe8, 0x38, 
  0x62, 0x64, 0x20, 0x8a, 0x89, 0x01, 0xed, 0x1c, 0xbc, 0x3d, 0xa6, 0x06, 
  0x27, 0x34, 0xc6, 0xb4, 0x58, 0xc8, 0x9c, 0x61, 0x71, 0xfa, 0x38, 0xe8, 
  0xd3, 0x04, 0x0a, 0x98, 0xdf, 0x16, 0x82, 0xde, 0xf5, 0xa8, 0x78, 0xdf, 
  0xab, 0x4b, 0x2b, 0xfd, 0x07, 0x7e, 0x2a, 0x96, 0x7f, 0xdb, 0x54, 0xe5, 
  0x09, 0xa3, 0x66, 0x30, 0x5a, 0x44, 0x49, 0xf4, 0x3f, 0xa8, 0xc3, 0x25, 
  0xd8, 0x73, 0xd7, 0xae, 0xef, 0x5b, 0xea, 0x9f, 0x01, 0x5b, 0x4b, 0xc9, 
  0xa2, 0x9c, 0x56, 0x08, 0x88, 0x7f, 0x4a, 0x69, 0x3b, 0xa0, 0xd1, 0x77, 
  0x62, 0x11, 0x11, 0xab, 0x96, 0xca, 0x78, 0x27, 0x0a, 0xde, 0x30, 0xd8, 
  0xd7, 0x43, 0xe4, 0x7b, 0xee, 0x15, 0xed, 0x74, 0x9b, 0x23, 0x07, 0xe2, 
  0xa0, 0xc7, 0x90, 0x23, 0x6f, 0x94, 0xd1, 0xcc, 0x05, 0x06, 0x98, 0x3e, 
  0x71, 0x0d, 0xcc, 0x01, 0x82, 0x21, 0x65, 0x7f, 0x41, 0x20, 0x22, 0xf3, 
  0x04, 0x0d, 0x55, 0x79, 0x3b, 0x0c, 0x99, 0xef, 0x2c, 0xc2, 0xa3, 0x1a, 
  0xf6, 0x5f, 0x14, 0xde, 0x34, 0xfb, 0x09, 0x07, 0xf8, 0x86, 0xa8, 0x82, 
  0xf9, 0x0d, 0x1c, 0x01, 0xab, 0xff, 0x34, 0x49, 0x07, 0xc8, 0x23, 0xbc, 
  0x95, 0x16, 0x35, 0xbc, 0xfa, 0xd2, 0x43, 0x3a, 0x40, 0xb9, 0x40, 0xb6, 
  0x16, 0xfa, 0x35, 0x9d, 0xce, 0x92, 0x8b, 0x0e, 0x00, 0xff, 0x4e, 0x78, 
  0xa0, 0x52, 0x64, 0x91, 0x3c, 0x64, 0xb6, 0xd1, 0xbc, 0x60, 0xf3, 0x44, 
  0xa5, 0xda, 0x90, 0xe0, 0x6e, 0xd3, 0x74, 0x12, 0x2d, 0xfb, 0x8e, 0x2d, 
  0xaf, 0x2d, 0x6a, 0x89, 0xda, 0x2f, 0x7f, 0x54, 0xad, 0xcd, 0x7c, 0x2c, 
  0x67, 0x3b, 0xd6, 0x8c, 0x92, 0xb1, 0x25, 0xe2, 0x59, 0x1a, 0xbd, 0xbb, 
  0x86, 0xda, 0xbb, 0xd8, 0x61, 0x2c, 0xcb, 0x38, 0x50, 0x12, 0xc6, 0xaf, 
  0xb4, 0x16, 0x07, 0xb4, 0xe2, 0x35, 0x73, 0x07, 0x6a, 0xca, 0x0c, 0x56, 
  0x0b, 0xde, 0x9b, 0x61, 0x36, 0x84, 0x23, 0x60, 0xfb, 0x4d, 0xde, 0x61, 
  0x4a, 0x44, 0x3b, 0x8b, 0xb0, 0x99, 0xf8, 0x68, 0xf1, 0x9a, 0x18, 0x6c, 
  0xcc, 0x84, 0x48, 0x7f, 0xe1, 0xc0, 0xd0, 0x73, 0x35, 0x44, 0x2d, 0xab, 
  0xab, 0xc0, 0xfa, 0x29, 0x73, 0xb9, 0xf3, 0x23, 0x81, 0x00, 0x8a, 0x28, 
  0x5c, 0x62, 0xd9, 0x0c, 0xb1, 0xe6, 0x1e, 0x4a, 0xad, 0xc0, 0x28, 0xc6, 
  0xb1, 0x77, 0xfe, 0xc1, 0xdf, 0x4a, 0x6d, 0x1d, 0x5b, 0xe1, 0xfd, 0x06, 
  0xee, 0xe1, 0xca, 0x15, 0x1d, 0xdc, 0xcb, 0x0d, 0xbf, 0x73, 0x1a, 0x74, 
  0x07, 0x1a, 0x57, 0xc4, 0xc9, 0x13, 0x66, 0x5a, 0x1b, 0x11, 0x89, 0x11, 
  0xa9, 0xc5, 0xa0, 0x63, 0xdf, 0x02, 0x74, 0xb4, 0x91, 0xf0, 0xb0, 0x88, 
  0xc2, 0xe3, 0x6a, 0x5f, 0xeb, 0xf4, 0x5e, 0x22, 0xbc, 0x79, 0x58, 0xb0, 
  0x5f, 0xcc, 0x46, 0x6e, 0x45, 0x58, 0x59, 0x4e, 0xb9, 0xcd, 0x69, 0xc5, 
  0x7f, 0x85, 0x8b, 0xfc, 0xc6, 0x02, 0xfa, 0xa2, 0x2d, 0x6d, 0xb4, 0x2c, 
  0x5c, 0x56, 0x2b, 0x7e, 0x14, 0x09, 0x89, 0xb8, 0x81, 0xc8, 0xb7, 0xf8, 
  0x29, 0x7a, 0xad, 0x29, 0x51, 0xa0, 0x75, 0xcd, 0xec, 0x98, 0x05, 0xb3, 
  0xed, 0xf1, 0xcc, 0x5c, 0x6c, 0x18, 0xff, 0x59, 0xd2, 0xf3, 0x64, 0x78, 
  0x78, 0xaa, 0xb8, 0x11, 0x87, 0x81, 0x0e, 0x95, 0x3a, 0x6c, 0x5d, 0xf2, 
  0x46, 0x26, 0xd6, 0x9e, 0xde, 0xe2, 0xee, 0xb1, 0x7a, 0xce, 0x09, 0xb0, 
  0x1d, 0x0e, 0x4c, 0x32, 0x71, 0xf4, 0x2a, 0x24, 0x66, 0x6c, 0x6a, 0x1c, 
  0xce, 0x70, 0xf8, 0x67, 0x51, 0xb0, 0xc2, 0x5f, 0x59, 0x6a, 0x0b, 0xd0, 
  0xf4, 0x4b, 0xb5, 0x27, 0x82, 0x70, 0x57, 0xbd, 0xd5, 0x78, 0xac, 0x14, 
  0x2a, 0xd5, 0x31, 0x15, 0x33, 0x25, 0xbb, 0x1c, 0xff, 0xe7, 0x68, 0xa6, 
  0x87, 0x6b, 0x30, 0x50, 0xc1, 0x33, 0x54, 0xa8, 0x72, 0x7f, 0x11, 0x7d, 
  0xc8, 0x61, 0x0e, 0x9e, 0x2f, 0x51, 0xcb, 0xdb, 0x55, 0xdb, 0xbd, 0x3d, 
  0x75, 0xc5, 0x10, 0xc5, 0x47, 0xcd, 0x8c, 0x1e, 0x35, 0x68, 0xb0, 0x53, 
  0x09, 0xc9, 0xb7, 0x88, 0x83, 0x55, 0x01, 0xee, 0x28, 0xe9, 0x15, 0xad, 
  0x72, 0xd7, 0x20, 0xc3, 0xe3, 0x15, 0x04, 0x20, 0xba, 0x94, 0x0b, 0xb5, 
  0xd8, 0x8a, 0x92, 0x37, 0x09, 0xc1, 0x25, 0x63, 0xc5, 0xfc, 0x64, 0x86, 
  0x44, 0xa2, 0x8d, 0x0c, 0xdc, 0x73, 0x39, 0xa2, 0x8f, 0x03, 0xf1, 0xab, 
  0xc9, 0x43, 0xda, 0xf0, 0x8d, 0xea, 0x21, 0x21, 0x09, 0x7f, 0x40, 0xb4, 
  0x25, 0xee, 0x76, 0xa0, 0x06, 0xd0, 0xe7, 0x5b, 0xbf, 0x8d, 0x19, 0xf8, 
  0xc0, 0x74, 0x89, 0xa8, 0x87, 0x4f, 0x85, 0x5f, 0x92, 0x51, 0xbe, 0x98, 
  0x92, 0xe0, 0x38, 0xb1, 0x81, 0x95, 0x88, 0xf6, 0xf6, 0x3c, 0x6b, 0xd3, 
  0x40, 0x08, 0x83, 0x9d, 0xe4, 0xba, 0x6b, 0xc5, 0xdc, 0xb2, 0x7d, 0x53, 
  0x46, 0xd4, 0xdd, 0x71, 0x01, 0x40, 0x6b, 0x71, 0x4f, 0xd9, 0x25, 0xc8, 
  0x1d, 0x3c, 0x33, 0xf7, 0x59, 0x0c, 0xb2, 0x5b, 0xd7, 0x4f, 0x27, 0x4d, 
  0xd1, 0x2c, 0x49, 0xf1, 0xca, 0xc1, 0x7c, 0x98, 0x59, 0x89, 0x16, 0xb8, 
  0xec, 0x9b, 0x94, 0x49, 0x45, 0xc0, 0x26, 0x39, 0x7a, 0xca, 0x89, 0x2b, 
  0x86, 0x09, 0x2a, 0x7f, 0x7d, 0xa0, 0x6e, 0xf7, 0xd3, 0x41, 0x58, 0x5a, 
  0x9b, 0x46, 0x83, 0xc2, 0x58, 0xe5, 0xd9, 0x13, 0xbc, 0xd7, 0xf3, 0x7d, 
  0xa9, 0xb3, 0x14, 0xab, 0xbc, 0xca, 0x60, 0xc5, 0xb8, 0xf5, 0x2b, 0xfa, 
  0x2b, 0xbe, 0x82, 0xc4, 0x72, 0x08, 0x16, 0xd7, 0x39, 0x32, 0x8f, 0xa8, 
  0x1b, 0x74, 0x9a, 0x69, 0x9d, 0x19, 0x73, 0x69, 0xac, 0x22, 0x24, 0xbd, 
  0x0c, 0x27, 0xeb, 0xbe, 0x8e, 0x39, 0x04, 0xb4, 0x15, 0xde, 0x1a, 0x64, 
  0xe5, 0x85, 0x83, 0xe0, 0xa2, 0x3e, 0xd1, 0x06, 0x09, 0x4b, 0xd8, 0x12, 
  0x7f, 0xf9, 0xb6, 0x71, 0xc1, 0x49, 0x7f, 0x36, 0x39, 0x20, 0xcc, 0x0b, 
  0x0e, 0x05, 0x07, 0x8d, 0x76, 0x53, 0x85, 0x58, 0x90, 0xf4, 0x32, 0x92, 
  0xc8, 0xde, 0x3e, 0x81, 0x8d, 0x3a, 0x8e, 0x74, 0x24, 0x2a, 0x12, 0x76, 
  0x1c, 0xdd, 0xe2, 0xdc, 0x69, 0xc1, 0x7e, 0x95, 0x64, 0x98, 0x7c, 0x74, 
  0x0a, 0xec, 0xae, 0xcc, 0x90, 0x03, 0x23, 0x39, 0xf6, 0xce, 0x0f, 0xff, 
  0x7d, 0xcf, 0x33, 0xd3, 0xf2, 0xa0, 0x2c, 0x22, 0x41, 0x75, 0x5c, 0x48, 
  0x61, 0x24, 0x26, 0x73, 0x04, 0xfc, 0xd7, 0x7f, 0xe2, 0xea, 0x50, 0xde, 
  0x2f, 0x0d, 0x0b, 0x1a, 0xc6, 0x77, 0xf0, 0x5f, 0x7f, 0x9f, 0x86, 0xdc, 
  0x5f, 0x29, 0x0f, 0x0b, 0xea, 0x54, 0x0f, 0x21, 0x67, 0x27, 0x17, 0x9f, 
  0x8e, 0x23, 0x81, 0x04, 0x35, 0x15, 0x9f, 0x06, 0xd0, 0xf1, 0x03, 0xd7, 
  0x5e, 0x76, 0x92, 0x05, 0x47, 0xf6, 0x40, 0x5d, 0x88, 0x49, 0xd7, 0xe0, 
  0x4d, 0x6a, 0x66, 0x0e, 0xe7, 0x18, 0xac, 0x4b, 0xe7, 0xe6, 0x87, 0xce, 
  0x5c, 0x9f, 0x9b, 0x4e, 0x2f, 0x6d, 0x10, 0x6b, 0x8a, 0x9d, 0x21, 0xa4, 
  0x3f, 0x3b, 0x30, 0x06, 0x94, 0x9e, 0x81, 0x3f, 0x84, 0x99, 0x1e, 0x94, 
  0x1b, 0x9b, 0x6b, 0x84, 0x49, 0x16, 0xa8, 0x59, 0xb3, 0x5f, 0x57, 0x63, 
  0x00, 0x14, 0xde, 0xa9, 0x26, 0xc7, 0x9e, 0x01, 0x1d, 0x9c, 0x15, 0x25, 
  0x14, 0xec, 0x2d, 0xb4, 0x4f, 0x07, 0x84, 0x16, 0x28, 0x34, 0x99, 0xc7, 
  0xca, 0x34, 0x44, 0x92, 0x03, 0x7c, 0x89, 0x6e, 0xf0, 0x33, 0x8e, 0x71, 
  0x9d, 0x0d, 0x9f, 0x90, 0x0d, 0x6b, 0x81, 0x53, 0x72, 0xf0, 0x52, 0x9d, 
  0x85, 0x37, 0x3e, 0x01, 0xd8, 0xd7, 0x90, 0x06, 0x16, 0x11, 0x4a, 0x30, 
  0xc0, 0xa1, 0x62, 0xcc, 0x88, 0xc3, 0x5c, 0x34, 0xc3, 0x31, 0x93, 0xbb, 
  0x9d, 0x28, 0xcd, 0x66, 0x0c, 0x6a, 0x6a, 0x2a, 0xab, 0xff, 0xd7, 0x01, 
  0x00, 0xd4, 0x6d, 0x57, 0x90, 0x5b, 0xa8, 0xa8, 0xf6, 0x2b, 0xbd, 0xe4, 
  0x1c, 0xcf, 0x93, 0xe8, 0x1d, 0xa0, 0x1c, 0xb6, 0xe3, 0x57, 0x76, 0x2a, 
  0xb5, 0x1b, 0xd0, 0x25, 0xc5, 0xd9, 0xe4, 0x20, 0x58, 0x5d, 0x9f, 0x9c, 
  0xb3, 0x82, 0x3c, 0x46, 0x64, 0x0b, 0x27, 0x63, 0x3b, 0x15, 0xdc, 0x47, 
  0xcb, 0xc8, 0x72, 0x34, 0xf1, 0x61, 0x38, 0x81, 0x7c, 0x4d, 0xcb, 0xd1, 
  0x14, 0xb8, 0x9e, 0x49, 0x6b, 0xd3, 0xe0, 0x40, 0x9a, 0x15, 0x5e, 0xbf, 
  0xba, 0x81, 0x0d, 0xd2, 0x6d, 0x34, 0x23, 0x56, 0x3f, 0x7a, 0x9d, 0x29, 
  0x03, 0x65, 0x73, 0x4f, 0x96, 0x23, 0xcd, 0x0b, 0x85, 0xad, 0x1d, 0x2e, 
  0x53, 0x96, 0x81, 0xe7, 0x8e, 0x63, 0x7d, 0x1d, 0x0a, 0x05, 0x11, 0x3e, 
  0x63, 0x2e, 0xad, 0x4b, 0x93, 0x8f, 0xc7, 0xdd, 0x55, 0xf9, 0x78, 0x92, 
  0x33, 0x11, 0xb3, 0x00, 0x22, 0x01, 0xf0, 0x03, 0x66, 0x67, 0x08, 0x00, 
  0x3d, 0xe6, 0x4a, 0xe0, 0xe2, 0x93, 0x6d, 0xb7, 0x94, 0xc7, 0x84, 0xb8, 
  0x8d, 0xbe, 0x67, 0xf2, 0x6b, 0xb7, 0x94, 0x99, 0x50, 0x53, 0x4e, 0x75, 
  0xe6, 0x85, 0x15, 0xee, 0x78, 0x1b, 0xb3, 0xb7, 0x67, 0xc9, 0x56, 0x8e, 
  0x10, 0xd8, 0x7e, 0x37, 0x31, 0x8b, 0x60, 0xfe, 0xd3, 0x17, 0x88, 0x5e, 
  0x02, 0x3c, 0x99, 0xee, 0xd4, 0xa7, 0xc1, 0xfa, 0xc7, 0xd2, 0xc9, 0x27, 
  0xd9, 0xa4, 0xb8, 0x03, 0xf7, 0x45, 0xe4, 0x20, 0x7c, 0xb1, 0x2b, 0x7f, 
  0x19, 0xc0, 0x1f, 0x02, 0x1e, 0x33, 0xdd, 0x7f, 0x36, 0xc2, 0x01, 0x71, 
  0x6e, 0xdc, 0x29, 0xc2, 0x6e, 0x39, 0x2f, 0xc9, 0xb1, 0x99, 0x2f, 0x76, 
  0xd8, 0xa9, 0x7c, 0xd7, 0x67, 0x68, 0x0b, 0x26, 0x01, 0xda, 0x3a, 0x74, 
  0x2e, 0x91, 0xea, 0x96, 0x54, 0x19, 0x31, 0x22, 0x24, 0xef, 0xa8, 0xe0, 
  0x43, 0x79, 0x14, 0x20, 0x71, 0xbb, 0xab, 0x90, 0xa9, 0xd2, 0x63, 0x58, 
  0x3f, 0x2b, 0x19, 0x13, 0xf7, 0x22, 0xa7, 0xe4, 0x2e, 0xb6, 0xa8, 0x06, 
  0xb2, 0xf0, 0xad, 0x15, 0xf0, 0xa9, 0xfd, 0x95, 0xe2, 0xd5, 0x9f, 0xd2, 
  0x7b, 0xf6, 0xa2, 0x5b, 0xab, 0x81, 0xe4, 0x97, 0x03, 0x7d, 0xc2, 0xf2, 
  0x48, 0xcf, 0x0d, 0xc9, 0x4c, 0xd7, 0x90, 0xe9, 0xda, 0xc4, 0x3d, 0x04, 
  0x0b, 0xfd, 0xae, 0xe4, 0xc8, 0x1d, 0x60, 0xb6, 0xfc, 0xb3, 0x82, 0xfa, 
  0xad, 0xd7, 0x7b, 0x04, 0xfb, 0x43, 0xda, 0x98, 0x6e, 0xae, 0x90, 0xaa, 
  0x04, 0x5f, 0x2a, 0x76, 0x90, 0xaf, 0xb8, 0xfd, 0x69, 0xa6, 0xa3, 0xdc, 
  0x79, 0x7d, 0x7e, 0x56, 0xe2, 0xbf, 0x55, 0xa6, 0x4e, 0x81, 0x32, 0xa7, 
  0xec, 0x22, 0x44, 0x42, 0xd8, 0xc8, 0xeb, 0x05, 0xf6, 0x1b, 0x92, 0x25, 
  0x29, 0xa9, 0x46, 0xb3, 0x8d, 0xcb, 0xd9, 0x89, 0xff, 0x9b, 0xf2, 0xda, 
  0x03, 0x06, 0xef, 0x67, 0x50, 0x5b, 0x35, 0x4b, 0xbf, 0x10, 0xb5, 0x4e, 
  0xa9, 0x35, 0x5b, 0xdd, 0x10, 0xb7, 0xa1, 0x95, 0x93, 0xda, 0x8b, 0xe0, 
  0xd1, 0xa1, 0x29, 0xf8, 0x69, 0xe1, 0x85, 0xa2, 0x2c, 0xc7, 0xfd, 0xd7, 
  0x88, 0xe5, 0xbe, 0x4c, 0xf2, 0xe0, 0x5d, 0x47, 0x8d, 0x5a, 0x25, 0xb5, 
  0xab, 0x52, 0x07, 0x75, 0x46, 0x71, 0x0f, 0x1e, 0x8e, 0x7d, 0x46, 0xd9, 
  0xbf, 0x28, 0x7f, 0xf2, 0x14, 0xd2, 0x10, 0x7d, 0x2e, 0xda, 0x68, 0x9d, 
  0x4d, 0xd4, 0xbf, 0xf2, 0xbe, 0x14, 0x63, 0xad, 0x56, 0xe7, 0xb9, 0xef, 
  0x43, 0x5b, 0x9a, 0xf3, 0xab, 0x28, 0xa7, 0x19, 0xcd, 0x96, 0xba, 0x37, 
  0x6f, 0xb6, 0x47, 0x1f, 0x96, 0xb3, 0xf1, 0x81, 0x17, 0xcd, 0xf4, 0x63, 
  0xdd, 0xf9, 0x2b, 0xef, 0xfc, 0xd8, 0x09, 0xf6, 0xc6, 0x89, 0xe3, 0xc7, 
  0x44, 0x98, 0xe5, 0xd4, 0x75, 0x57, 0xf8, 0xcb, 0xfb, 0xc8, 0xd4, 0x31, 
  0xa0, 0x82, 0xec, 0x04, 0x27, 0x55, 0xc5, 0x7b, 0x31, 0x30, 0x00, 0xf9, 
  0xe7, 0xd1, 0x59, 0xe7, 0x44, 0x87, 0xaa, 0x44, 0xae, 0x2a, 0xd3, 0x39, 
  0x77, 0x3a, 0xc6, 0x90, 0x37, 0xe3, 0xd7, 0x31, 0x26, 0x31, 0xb6, 0xac, 
  0x76, 0xff, 0xd5, 0x86, 0x45, 0x32, 0x60, 0x88, 0x47, 0xff, 0xd1, 0x39, 
  0xc7, 0xeb, 0x17, 0x89, 0x9a, 0x22, 0x56, 0x39, 0xaa, 0xef, 0x9e, 0x90, 
  0xe0, 0xd6, 0x81, 0xaf, 0xb8, 0x97, 0xcb, 0x5d, 0x69, 0xd5, 0x3e, 0x0c, 
  0x75, 0x8f, 0x55, 0x94, 0xf7, 0x49, 0xf3, 0x9e, 0x6c, 0x78, 0xb0, 0xc4, 
  0xd2, 0x63, 0x33, 0x36, 0x7e, 0x82, 0x07, 0xe4, 0x22, 0xa6, 0x43, 0xe1, 
  0x84, 0xb7, 0x98, 0x16, 0x4f, 0xdb, 0x3b, 0x66, 0x04, 0x81, 0x2c, 0x3c, 
  0x44, 0x62, 0xe6, 0xc9, 0x21, 0x71, 0x7b, 0x56, 0xe0, 0x3f, 0x72, 0x1b, 
  0xee, 0xd8, 0x0c, 0x34, 0x31, 0x7b, 0x70, 0x3b, 0x4b, 0x3b, 0x12, 0x42, 
  0x2c, 0x29, 0xda, 0x82, 0x14, 0x02, 0x42, 0xb7, 0x31, 0xb4, 0xe9, 0x18, 
  0xdc, 0x77, 0xbc, 0xf8, 0x79, 0xad, 0xf0, 0x96, 0xe4, 0xf8, 0xdc, 0x59, 
  0xe1, 0x9a, 0xfb, 0xf3, 0xe8, 0x63, 0x31, 0xe7, 0x67, 0xa7, 0x1b, 0xc8, 
  0x16, 0x46, 0xf4, 0x5f, 0x60, 0x41, 0xab, 0x53, 0xc6, 0x47, 0xc1, 0x7f, 
  0x78, 0x75, 0x59, 0x96, 0x9b, 0xa0, 0x69, 0x0a, 0xd9, 0x2c, 0x5e, 0x54, 
  0xd5, 0xde, 0xb7, 0xcd, 0xb5, 0x23, 0x37, 0x76, 0xfa, 0x88, 0xb5, 0xa8, 
  0xe6, 0x63, 0xbe, 0x39, 0x5d, 0x83, 0x08, 0x9b, 0x8e, 0xa2, 0xbf, 0x62, 
  0xcc, 0x36, 0xd7, 0x89, 0xb7, 0x72, 0xc1, 0xc6, 0xf5, 0x7f, 0x94, 0x52, 
  0xf8, 0x3d, 0xf1, 0x8c, 0x77, 0x76, 0x02, 0xf1, 0x71, 0x54, 0x5c, 0x0b, 
  0x43, 0xe4, 0x11, 0x8f, 0x86, 0xd7, 0x4b, 0xc8, 0x90, 0x97, 0x07, 0xe0, 
  0x85, 0xd3, 0x5a, 0x7a, 0xb8, 0x5a, 0x61, 0x29, 0xfd, 0x57, 0xd6, 0xa7, 
  0xde, 0x3b, 0xc9, 0xc1, 0xef, 0xe9, 0xf0, 0x36, 0xb9, 0x54, 0xa4, 0xee, 
  0x23, 0x16, 0x8e, 0xd8, 0x44, 0x74, 0xd3, 0x4f, 0x20, 0x1c, 0xc6, 0x0a, 
  0x53, 0x99, 0x25, 0xbe, 0x7b, 0xa5, 0x56, 0x2a, 0xce, 0x83, 0x1d, 0x71, 
  0x42, 0x5d, 0x62, 0x7f, 0xb1, 0xdb, 0x86, 0xb0, 0xa1, 0x2b, 0xe7, 0xed, 
  0xc8, 0xf6, 0xd1, 0xfb, 0xbc, 0x7d, 0x6a, 0x81, 0xb5, 0xa9, 0xa2, 0x97, 
  0x99, 0x38, 0xf8, 0x6c, 0x27, 0x3c, 0x22, 0x68, 0xc9, 0x5d, 0x26, 0x2c, 
  0x01, 0x22, 0x8a, 0xa6, 0x7b, 0x39, 0x1c, 0x03, 0x9f, 0xf8, 0xc5, 0xf1, 
  0xad, 0xd6, 0x27, 0xf5, 0x14, 0xa1, 0xcf, 0x24, 0x69, 0x81, 0x4e, 0xe0, 
  0x12, 0x7c, 0x76, 0xa9, 0xc1, 0xc4, 0xfc, 0x19, 0xe8, 0x34, 0xbf, 0xa1, 
  0x52, 0xa2, 0x03, 0x45, 0x10, 0x2e, 0x04, 0x9b, 0xab, 0x9b, 0xa9, 0xdf, 
  0x48, 0xb3, 0x83, 0x69, 0x13, 0xad, 0x2d, 0xe2, 0x8b, 0x90, 0x55, 0x97, 
  0x09, 0xef, 0xaa, 0x19, 0xda, 0x81, 0x47, 0x98, 0x5a, 0x92, 0x30, 0x92, 
  0x3d, 0xea, 0x1b, 0x01, 0xf0, 0x87, 0xd6, 0x45, 0xd3, 0xf4, 0x79, 0x8f, 
  0xfe, 0xf6, 0x02, 0x79, 0xd5, 0x33, 0xc5, 0xad, 0x1d, 0x60, 0x13, 0x0c, 
  0x64, 0xa4, 0xd4, 0x98, 0x37, 0x8f, 0x59, 0x29, 0xea, 0xdc, 0x40, 0x94, 
  0x46, 0xfb, 0x11, 0x6c, 0xd7, 0x05, 0xb4, 0x6a, 0xe2, 0x3b, 0xa6, 0x2c, 
  0xc2, 0x01, 0x5f, 0xc4, 0x03, 0xb6, 0x43, 0xb6, 0x96, 0x48, 0xff, 0x2d, 
  0x50, 0x60, 0xb7, 0x04, 0x00, 0x6e, 0x95, 0xfa, 0xde, 0x45, 0xaa, 0x1f, 
  0x79, 0x09, 0x1e, 0x74, 0x32, 0x48, 0xed, 0x68, 0x1a, 0xf5, 0x88, 0x11, 
  0x21, 0x06, 0x77, 0x3c, 0x0e, 0x09, 0xc5, 0xf6, 0xf4, 0x6a, 0x6e, 0xf9, 
  0x67, 0x6a, 0xfb, 0x02, 0x09, 0x13, 0x02, 0x7f, 0x4e, 0xc6, 0x00, 0xba, 
  0x28, 0x07, 0x8b, 0x70, 0xad, 0x90, 0xa0, 0x78, 0x08, 0xef, 0x07, 0x2e, 
  0xae, 0xc6, 0x9b, 0x6e, 0x5b, 0x21, 0x47, 0x0d, 0x98, 0x76, 0x8f, 0xed, 
  0x4f, 0xa3, 0x92, 0x4e, 0xb2, 0x35, 0x11, 0x39, 0x12, 0x3a, 0x7f, 0xc7, 
  0xa3, 0x56, 0xb6, 0x92, 0x98, 0x8d, 0x56, 0xf8, 0x88, 0x5e, 0xfc, 0xfc, 
  0x22, 0x89, 0xf3, 0xa4, 0x4a, 0x39, 0x9f, 0x44, 0x5e, 0x4f, 0xba, 0xd7, 
  0x71, 0xac, 0x3d, 0x87, 0x69, 0xa8, 0x12, 0xa9, 0x2a, 0x72, 0x98, 0x28, 
  0xc2, 0xe9, 0xd3, 0xcb, 0xcd, 0xa2, 0xc5, 0x30, 0x44, 0x79, 0x73, 0x3c, 
  0x83, 0x77, 0x2e, 0x23, 0x6a, 0x6f, 0xbe, 0x81, 0xe7, 0xe8, 0x42, 0x58, 
  0x1e, 0x6a, 0xaa, 0xa9, 0x00, 0x8b, 0xa6, 0xc8, 0xce, 0xc2, 0xe6, 0xb1, 
  0x17, 0xe6, 0x2e, 0xd1, 0xe1, 0x58, 0x3a, 0x97, 0x22, 0x57, 0x7e, 0xe5, 
  0xd5, 0x59, 0xcc, 0xf0, 0x0a, 0xaf, 0xb1, 0xe8, 0xaa, 0xf6, 0x07, 0xa6, 
  0x62, 0x21, 0x76, 0x38, 0x8d, 0xc3, 0x0e, 0x0a, 0x7a, 0xbe, 0xea, 0xb4, 
  0x05, 0x3d, 0x19, 0xc9, 0xf9, 0x7b, 0x00, 0xbc, 0x8f, 0xc5, 0x3e, 0x2b, 
  0x6b, 0x02, 0xa0, 0x9a, 0x0f, 0xfc, 0x6c, 0xb5, 0xc9, 0xf0, 0x83, 0xca, 
  0xf1, 0x81, 0x7d, 0x06, 0x89, 0x0e, 0x86, 0x8d, 0xc9, 0xe8, 0x10, 0xc8, 
  0x7e, 0x26, 0x3b, 0x01, 0x64, 0x43, 0xd8, 0x06, 0x02, 0x18, 0xba, 0xfa, 
  0x4a, 0x09, 0x4b, 0x05, 0xcf, 0x0d, 0x24, 0xf6, 0xf0, 0xa9, 0xe3, 0xf5, 
  0x9b, 0xdb, 0x3c, 0xcf, 0x94, 0x42, 0xdb, 0x03, 0xe6, 0xcc, 0xd8, 0x93, 
  0xb0, 0xcf, 0xe0, 0x7f, 0xda, 0x84, 0x0c, 0xf6, 0xde, 0xac, 0xd7, 0x07, 
  0xf0, 0x1f, 0x99, 0x32, 0xb0, 0x95, 0xf8, 0x9d, 0xbc, 0xa3, 0x9c, 0xfd, 
  0xa9, 0x2e, 0x52, 0x62, 0x39, 0x55, 0x44, 0x79, 0xba, 0x65, 0xbb, 0x85, 
  0x62, 0x8b, 0xa2, 0xb7, 0xf8, 0x47, 0xe6, 0x16, 0xc6, 0x1b, 0xbb, 0xb5, 
  0x23, 0x6b, 0xb0, 0x60, 0x2f, 0xd1, 0xe6, 0x59, 0xce, 0x55, 0x1d, 0x9c, 
  0xd6, 0x55, 0xb4, 0xbd, 0x35, 0x88, 0x12, 0x31, 0xd9, 0xa6, 0x54, 0x33, 
  0xd5, 0x0b, 0xcc, 0x50, 0x81, 0x85, 0xdb, 0x42, 0x6c, 0x37, 0xc3, 0x6a, 
  0x16, 0x73, 0x57, 0x77, 0x30, 0x0d, 0x5d, 0x0b, 0x0f, 0x4c, 0xbe, 0x08, 
  0x92, 0xc1, 0xe5, 0xe6, 0x51, 0x05, 0xce, 0x54, 0xba, 0x2c, 0x8a, 0xa5, 
  0xaa, 0xee, 0x7a, 0x70, 0x36, 0x1a, 0x4d, 0xcd, 0xbd, 0xdb, 0x41, 0xf2, 
  0xc6, 0xf5, 0x4d, 0xeb, 0x7f, 0x2f, 0x7b, 0xe7, 0x18, 0xbd, 0x15, 0x09, 
  0x82, 0xba, 0x99, 0x4e, 0x4b, 0x94, 0x73, 0x57, 0x25, 0x64, 0x3f, 0xe8, 
  0xa5, 0xb6, 0x9e, 0x86, 0xd8, 0x44, 0x82, 0x66, 0x0c, 0x14, 0xc2, 0xab, 
  0x0f, 0xb7, 0x66, 0x98, 0xdc, 0x51, 0xf5, 0x05, 0xc7, 0xa3, 0xc8, 0x09, 
  0x53, 0x64, 0x4b, 0xd4, 0x56, 0xb2, 0x67, 0x08, 0x69, 0x83, 0xce, 0xf6, 
  0x15, 0x00, 0x0a, 0xdf, 0xda, 0xb6, 0xb1, 0xd4, 0xa9, 0x5a, 0x4a, 0x46, 
  0x27, 0x59, 0x25, 0xef, 0x06, 0xfc, 0x52, 0xcb, 0xac, 0x1a, 0x60, 0xc3, 
  0x68, 0xe5, 0x81, 0x49, 0xb6, 0xc6, 0x1c, 0x72, 0x3b, 0xe1, 0x8f, 0xcb, 
  0x62, 0x2b, 0x6b, 0x91, 0x17, 0x0b, 0x87, 0xb6, 0xa1, 0x03, 0xf0, 0x41, 
  0x4f, 0x2e, 0x39, 0xa1, 0x7e, 0xc9, 0xab, 0x50, 0x55, 0xe4, 0x71, 0x27, 
  0x3e, 0xec, 0x67, 0xcf, 0xc5, 0xb4, 0x3e, 0xa1, 0x35, 0xbf, 0x4a, 0x79, 
  0xd3, 0x78, 0x2b, 0xf5, 0x37, 0xc5, 0xa6, 0x2b, 0x77, 0x55, 0x95, 0x2f, 
  0x53, 0xf8, 0x82, 0xa3, 0x00, 0x36, 0x1f, 0xbc, 0x61, 0xe0, 0xfe, 0xb6, 
  0x7f, 0xde, 0x83, 0xd2, 0x17, 0x5e, 0x1a, 0x14, 0xfc, 0xd3, 0x01, 0x73, 
  0x32, 0x88, 0x1f, 0x8b, 0x5a, 0x2d, 0x15, 0xfd, 0xc5, 0x4d, 0x62, 0x24, 
  0x10, 0x1c, 0x8b, 0xbc, 0x01, 0xa0, 0x30, 0xc8, 0x31, 0x8b, 0x88, 0x3e, 
  0x0e, 0x71, 0xaf, 0xea, 0xa4, 0x55, 0xab, 0x35, 0x44, 0x62, 0x81, 0x10, 
  0x50, 0x2a, 0x8d, 0x94, 0xa9, 0x7a, 0xcd, 0xd3, 0xf2, 0xed, 0x1c, 0xa4, 
  0x8a, 0x93, 0x9b, 0x12, 0x64, 0x0b, 0x27, 0xc6, 0x4f, 0xdd, 0x0a, 0xd5, 
  0xf2, 0x7c, 0x0c, 0x1e, 0x26, 0xc5, 0xfa, 0x69, 0xa5, 0x0c, 0x01, 0x1a, 
  0xe8, 0x2d, 0x8a, 0x1c, 0x8f, 0xd4, 0xd5, 0xcf, 0x5c, 0x0e, 0x86, 0x7b, 
  0xe6, 0x6c, 0x0f, 0xb1, 0x2b, 0x9b, 0x4b, 0x2a, 0xbe, 0x0d, 0xde, 0x1e, 
  0x1a, 0x8a, 0xa7, 0x4b, 0x52, 0x1e, 0xc9, 0x11, 0xee, 0x46, 0x24, 0x4a, 
  0xa9, 0x7f, 0x0c, 0x19, 0x6f, 0x33, 0xee, 0x97, 0x02, 0x1d, 0x7e, 0x64, 
  0xb6, 0xfa, 0xdd, 0x32, 0xd6, 0xa5, 0xfb, 0x39, 0x34, 0x70, 0x18, 0x5f, 
  0x29, 0x20, 0x9b, 0xed, 0x9c, 0xa8, 0xcc, 0x1f, 0xb4, 0x26, 0xab, 0x2e, 
  0xd4, 0x82, 0x84, 0xbf, 0x5c, 0xc9, 0xee, 0xf2, 0xd4, 0x74, 0x63, 0x4c, 
  0xcd, 0x69, 0x1a, 0x6f, 0xc0, 0x40, 0xdd, 0x20, 0x94, 0xc2, 0xf2, 0x1c, 
  0x0a, 0x65, 0x89, 0xc9, 0x76, 0xe8, 0x14, 0x22, 0xee, 0x0a, 0x88, 0x36, 
  0x98, 0xcf, 0x1c, 0xd0, 0x4c, 0x21, 0xca, 0x7f, 0xf5, 0x6c, 0x36, 0x19, 
  0xce, 0x07, 0x6e, 0x3d, 0x41, 0xa1, 0x33, 0x7d, 0x9c, 0x31, 0xaf, 0x93, 
  0xf4, 0xda, 0x40, 0xd4, 0xdd, 0x20, 0xf9, 0x7c, 0xca, 0xe2, 0x3f, 0x2e, 
  0x36, 0x2d, 0x7e, 0xaa, 0x2f, 0xfe, 0x48, 0x5f, 0x0c, 0xf8, 0x87, 0x2a, 
  0xff, 0x46, 0x6e, 0xec, 0x89, 0xe5, 0x9d, 0x77, 0x97, 0x1c, 0x7f, 0xf5, 
  0xb9, 0x65, 0x84, 0xcc, 0xdf, 0x46, 0xf4, 0x08, 0xe4, 0xee, 0x53, 0xd7, 
  0x9e, 0x8a, 0xb5, 0xe7, 0x70, 0x0c, 0x66, 0x90, 0x5b, 0x4e, 0xfa, 0x31, 
  0xb7, 0xcd, 0xc2, 0x0d, 0x67, 0x74, 0x69, 0x5d, 0xf6, 0x0b, 0x40, 0x3b, 
  0x54, 0x10, 0x77, 0x04, 0x04, 0x3b, 0xac, 0x57, 0xca, 0xb5, 0x8b, 0x52, 
  0xbe, 0xef, 0x6b, 0x46, 0xd5, 0x65, 0xeb, 0xbb, 0x45, 0x8c, 0xce, 0x6b, 
  0x68, 0xa0, 0xc1, 0xea, 0x3b, 0xa5, 0xc0, 0xc7, 0x1a, 0x5a, 0xfe, 0xc3, 
  0x75, 0x46, 0x6b, 0x07, 0xfe, 0xc0, 0xd4, 0x77, 0xc9, 0x6c, 0x9b, 0x7f, 
  0x24, 0x34, 0xed, 0x44, 0xf6, 0x43, 0x46, 0x5d, 0x51, 0xa8, 0x05, 0x07, 
  0xfc, 0xef, 0x4b, 0xe7, 0x38, 0xb0, 0x20, 0x8e, 0x42, 0xfd, 0x6f, 0x8d, 
  0xf0, 0x02, 0x7d, 0xf8, 0x0a, 0xfc, 0xd3, 0xf7, 0x08, 0xdf, 0xab, 0xb9, 
  0x17, 0xc2, 0x7f, 0xa8, 0x2f, 0xca, 0x9f, 0x35, 0xeb, 0x7f, 0xb7, 0xaf, 
  0xfd, 0x41, 0x70, 0x18, 0x8a, 0x63, 0xf6, 0x7a, 0xab, 0x3e, 0x36, 0x48, 
  0x46, 0xf7, 0xc3, 0xa9, 0xb9, 0xa6, 0x10, 0xcb, 0xcc, 0xa4, 0x65, 0x3e, 
  0x1c, 0x12, 0x99, 0x27, 0xf6, 0x14, 0xf3, 0x39, 0x5d, 0x45, 0xc6, 0xff, 
  0xc7, 0xc7, 0xa7, 0xfe, 0x37, 0xb0, 0xa0, 0xec, 0xef, 0x18, 0xa6, 0x63, 
  0x6f, 0xc8, 0x4e, 0xda, 0xa0, 0x96, 0xc0, 0x01, 0x7a, 0x25, 0xc0, 0xe2, 
  0x48, 0xb7, 0xbc, 0x71, 0x22, 0xa3, 0x4a, 0x01, 0x50, 0x04, 0x54, 0x04, 
  0x82, 0xd5, 0x29, 0x04, 0x58, 0x4d, 0x77, 0xdd, 0x7f, 0xa1, 0x13, 0x84, 
  0xf0, 0xc9, 0xea, 0x71, 0x45, 0x73, 0x91, 0xd0, 0xf2, 0x11, 0xb3, 0xff, 
  0x2a, 0xb6, 0xfc, 0xad, 0xd2, 0x40, 0x87, 0x3b, 0x42, 0xe6, 0x06, 0x7e, 
  0x76, 0x67, 0x9d, 0x14, 0xd6, 0xe9, 0xaf, 0x05, 0x90, 0xfc, 0x09, 0x56, 
  0x1b, 0x12, 0xe0, 0xad, 0xb0, 0xb9, 0x17, 0xca, 0x81, 0x7a, 0x74, 0xd0, 
  0xa7, 0xbb, 0x8c, 0xb0, 0xf5, 0x42, 0x53, 0xaa, 0x7a, 0x07, 0xe1, 0x4e, 
  0x86, 0xb5, 0xce, 0x60, 0x74, 0x82, 0xc4, 0xc3, 0x04, 0x50, 0x26, 0x3c, 
  0x7f, 0x68, 0x3e, 0x3b, 0x53, 0x3a, 0xe5, 0x6c, 0x8a, 0x38, 0x35, 0xc1, 
  0xdd, 0x05, 0xd0, 0xcd, 0xf2, 0xb6, 0x94, 0x7d, 0x7d, 0x26, 0x96, 0xc4, 
  0xf7, 0x25, 0x84, 0xb5, 0xff, 0x62, 0x36, 0xb5, 0x85, 0xad, 0x02, 0x51, 
  0xc6, 0xd6, 0xc0, 0x1c, 0xa2, 0x57, 0x57, 0x1c, 0x22, 0x03, 0xbe, 0x49, 
  0x5e, 0xd6, 0x90, 0x5e, 0x52, 0xa7, 0x57, 0xe7, 0x85, 0xe7, 0xe1, 0x98, 
  0xd0, 0x61, 0xcb, 0xf4, 0xb3, 0xb3, 0x27, 0x93, 0x96, 0x8c, 0x8c, 0xf6, 
  0x96, 0x3d, 0x5a, 0xf7, 0x4a, 0xd8, 0x9f, 0x38, 0x1e, 0xc5, 0x6d, 0xbc, 
  0x4e, 0x30, 0x4f, 0x81, 0xf6, 0xf9, 0xa8, 0x5c, 0x8a, 0xbe, 0x4c, 0x55, 
  0xd1, 0x4d, 0x0d, 0x6c, 0xd7, 0xcf, 0x3f, 0x16, 0xeb, 0x81, 0x93, 0x26, 
  0xd9, 0x26, 0x62, 0x20, 0x5f, 0x67, 0x18, 0xe4, 0xd6, 0x2e, 0x93, 0xe8, 
  0xe8, 0x13, 0x48, 0xbf, 0xf0, 0x45, 0xda, 0xcc, 0x0a, 0xf6, 0x9d, 0xc2, 
  0x9c, 0x72, 0x81, 0x3f, 0xbe, 0x83, 0xf0, 0x10, 0xf7, 0x00, 0x5b, 0x4d, 
  0xa4, 0x2f, 0xf5, 0x30, 0x61, 0x03, 0x5e, 0xf1, 0x4e, 0x60, 0x02, 0x11, 
  0x63, 0x7c, 0x2f, 0xd6, 0x1b, 0x5b, 0x03, 0x51, 0xed, 0xd8, 0x6e, 0xef, 
  0x9c, 0xe3, 0x0a, 0x69, 0xe6, 0x65, 0xf1, 0x9e, 0x2c, 0x2c, 0x0f, 0x8d, 
  0x28, 0x7a, 0xde, 0x02, 0xa4, 0x16, 0xec, 0x6f, 0x71, 0x56, 0xfd, 0x49, 
  0xdc, 0x5f, 0x85, 0x6a, 0x5f, 0x26, 0x88, 0xb1, 0x83, 0x7e, 0x6b, 0xed, 
  0xf7, 0x9a, 0xe4, 0x78, 0x2f, 0x53, 0x21, 0xd6, 0x05, 0xc5, 0xfc, 0x09, 
  0x3e, 0xfa, 0x8c, 0x7b, 0xba, 0xdf, 0xa5, 0x42, 0x06, 0xa5, 0x43, 0x60, 
  0xd6, 0x0b, 0xa6, 0x1e, 0x2c, 0x51, 0x01, 0x02, 0xe2, 0xa8, 0xa1, 0xe1, 
  0x77, 0xdd, 0xe9, 0x6a, 0x85, 0x0e, 0x91, 0x14, 0x4c, 0xbd, 0x6a, 0x99, 
  0x00, 0xbc, 0x81, 0xed, 0x9c, 0x09, 0x53, 0xd4, 0x4c, 0xc6, 0x40, 0x6e, 
  0xe2, 0x7f, 0xd3, 0x39, 0xc9, 0x1b, 0x29, 0x68, 0x7c, 0x95, 0xdf, 0x29, 
  0x83, 0x9a, 0xd7, 0xae, 0xa9, 0x99, 0x6f, 0xbc, 0x08, 0xf7, 0x5b, 0x86, 
  0xc9, 0xfa, 0xd0, 0x15, 0xc4, 0x06, 0xaf, 0x22, 0x72, 0x3a, 0xce, 0xc0, 
  0xe6, 0x8d, 0xca, 0x71, 0x09, 0xa8, 0xc3, 0xd7, 0x7b, 0x42, 0x94, 0x23, 
  0xdc, 0xde, 0x9d, 0x55, 0x6a, 0x9f, 0xfa, 0x10, 0x8c, 0x52, 0x66, 0x11, 
  0x07, 0x1c, 0xd0, 0x96, 0xcf, 0x6b, 0x7a, 0x50, 0xb9, 0xc3, 0x25, 0x5f, 
  0x04, 0x0d, 0x72, 0xb4, 0x2f, 0x81, 0x72, 0xbd, 0xea, 0x26, 0x62, 0xdf, 
  0x71, 0xc8, 0xa5, 0x8d, 0x7a, 0xbf, 0xce, 0xd4, 0xad, 0xec, 0x28, 0x29, 
  0x53, 0xe2, 0x30, 0x8a, 0x03, 0x00, 0x7c, 0x4b, 0xa0, 0xe0, 0x05, 0xd4, 
  0x62, 0x8e, 0x27, 0x7b, 0x2d, 0x29, 0x3c, 0xe0, 0x26, 0x72, 0xf3, 0xaf, 
  0x7b, 0x7f, 0xaa, 0x17, 0x0b, 0xdc, 0x44, 0xfd, 0xa9, 0x4c, 0x31, 0x9f, 
  0x6c, 0xb0, 0x72, 0xba, 0x51, 0xb6, 0x5a, 0xb3, 0xdd, 0xe7, 0xc1, 0xac, 
  0x83, 0x41, 0x6f, 0x04, 0xf6, 0x42, 0x1a, 0x9e, 0xee, 0x10, 0xed, 0xc1, 
  0xce, 0x26, 0x19, 0xe1, 0xba, 0xe1, 0xa9, 0xc6, 0x85, 0x4d, 0xa2, 0x97, 
  0xf7, 0x84, 0xc2, 0x5c, 0x4d, 0xa1, 0x26, 0xca, 0x2c, 0x5d, 0xd6, 0x13, 
  0xf6, 0x7a, 0x3b, 0xfc, 0x00, 0x00, 0x06, 0x00, 0x08, 0x00, 0x04, 0x00, 
  0x06, 0x00, 0x00, 0x00, 0x04, 0x00, 0x00, 0x00, 0x40, 0x00, 0x00, 0x00, 
  0x74, 0x97, 0x2c, 0xc9, 0x7f, 0x33, 0xaa, 0x88, 0xf1, 0x88, 0xbe, 0x78, 
  0x6a, 0xdc, 0x66, 0x41, 0x0e, 0x0d, 0xb3, 0x62, 0x96, 0xdf, 0xe5, 0xc7, 
  0x39, 0x53, 0x95, 0x05, 0x04, 0xc9, 0xd2, 0x41, 0xf4, 0xe2, 0xe5, 0x75, 
  0x2b, 0xef, 0xe2, 0x76, 0xa5, 0xf4, 0x8b, 0x33, 0x1e, 0x74, 0xe7, 0x6e, 
  0x7a, 0xd9, 0xbc, 0xa6, 0x47, 0x82, 0x4b, 0x77, 0x89, 0xc0, 0xb2, 0xd4, 
  0x38, 0x5c, 0xf3, 0x27, 0x84, 0xff, 0xff, 0xff, 0x88, 0xff, 0xff, 0xff, 
  0x0f, 0x00, 0x00, 0x00, 0x4d, 0x4c, 0x49, 0x52, 0x20, 0x43, 0x6f, 0x6e, 
  0x76, 0x65, 0x72, 0x74, 0x65, 0x64, 0x2e, 0x00, 0x01, 0x00, 0x00, 0x00, 
  0x14, 0x00, 0x00, 0x00, 0x00, 0x00, 0x0e, 0x00, 0x18, 0x00, 0x14, 0x00, 
  0x10, 0x00, 0x0c, 0x00, 0x08, 0x00, 0x04, 0x00, 0x0e, 0x00, 0x00, 0x00, 
  0x14, 0x00, 0x00, 0x00, 0x1c, 0x00, 0x00, 0x00, 0xdc, 0x00, 0x00, 0x00, 
  0xe0, 0x00, 0x00, 0x00, 0xe4, 0x00, 0x00, 0x00, 0x04, 0x00, 0x00, 0x00, 
  0x6d, 0x61, 0x69, 0x6e, 0x00, 0x00, 0x00, 0x00, 0x03, 0x00, 0x00, 0x00, 
  0x84, 0x00, 0x00, 0x00, 0x3c, 0x00, 0x00, 0x00, 0x04, 0x00, 0x00, 0x00, 
  0x96, 0xff, 0xff, 0xff, 0x14, 0x00, 0x00, 0x00, 0x00, 0x00, 0x00, 0x08, 
  0x10, 0x00, 0x00, 0x00, 0x14, 0x00, 0x00, 0x00, 0x04, 0x00, 0x04, 0x00, 
  0x04, 0x00, 0x00, 0x00, 0x01, 0x00, 0x00, 0x00, 0x06, 0x00, 0x00, 0x00, 
  0x03, 0x00, 0x00, 0x00, 0x05, 0x00, 0x00, 0x00, 0x01, 0x00, 0x00, 0x00, 
  0xff, 0xff, 0xff, 0xff, 0xca, 0xff, 0xff, 0xff, 0x10, 0x00, 0x00, 0x00, 
  0x00, 0x00, 0x00, 0x08, 0x10, 0x00, 0x00, 0x00, 0x14, 0x00, 0x00, 0x00, 
  0xba, 0xff, 0xff, 0xff, 0x00, 0x00, 0x00, 0x01, 0x01, 0x00, 0x00, 0x00, 
  0x05, 0x00, 0x00, 0x00, 0x03, 0x00, 0x00, 0x00, 0x04, 0x00, 0x00, 0x00, 
  0x02, 0x00, 0x00, 0x00, 0xff, 0xff, 0xff, 0xff, 0x00, 0x00, 0x0e, 0x00, 
  0x16, 0x00, 0x00, 0x00, 0x10, 0x00, 0x0c, 0x00, 0x0b, 0x00, 0x04, 0x00, 
  0x0e, 0x00, 0x00, 0x00, 0x18, 0x00, 0x00, 0x00, 0x00, 0x00, 0x00, 0x08, 
  0x18, 0x00, 0x00, 0x00, 0x1c, 0x00, 0x00, 0x00, 0x00, 0x00, 0x06, 0x00, 
  0x08, 0x00, 0x07, 0x00, 0x06, 0x00, 0x00, 0x00, 0x00, 0x00, 0x00, 0x01, 
  0x01, 0x00, 0x00, 0x00, 0x04, 0x00, 0x00, 0x00, 0x03, 0x00, 0x00, 0x00, 
  0x00, 0x00, 0x00, 0x00, 0x03, 0x00, 0x00, 0x00, 0xff, 0xff, 0xff, 0xff, 
  0x01, 0x00, 0x00, 0x00, 0x06, 0x00, 0x00, 0x00, 0x01, 0x00, 0x00, 0x00, 
  0x00, 0x00, 0x00, 0x00, 0x07, 0x00, 0x00, 0x00, 0x40, 0x09, 0x00, 0x00, 
  0xc0, 0x08, 0x00, 0x00, 0x4c, 0x05, 0x00, 0x00, 0xf0, 0x01, 0x00, 0x00, 
  0x54, 0x01, 0x00, 0x00, 0x80, 0x00, 0x00, 0x00, 0x04, 0x00, 0x00, 0x00, 
  0xf2, 0xf6, 0xff, 0xff, 0x00, 0x00, 0x00, 0x01, 0x18, 0x00, 0x00, 0x00, 
  0x20, 0x00, 0x00, 0x00, 0x3c, 0x00, 0x00, 0x00, 0x07, 0x00, 0x00, 0x00, 
  0x00, 0x00, 0x00, 0x09, 0x50, 0x00, 0x00, 0x00, 0x02, 0x00, 0x00, 0x00, 
  0xff, 0xff, 0xff, 0xff, 0x01, 0x00, 0x00, 0x00, 0xdc, 0xf6, 0xff, 0xff, 
  0x08, 0x00, 0x00, 0x00, 0x10, 0x00, 0x00, 0x00, 0x01, 0x00, 0x00, 0x00, 
  0x01, 0x00, 0x00, 0x00, 0x00, 0x00, 0x00, 0x00, 0x01, 0x00, 0x00, 0x00, 
  0x48, 0xfa, 0x50, 0x3a, 0x1b, 0x00, 0x00, 0x00, 0x53, 0x74, 0x61, 0x74, 
  0x65, 0x66, 0x75, 0x6c, 0x50, 0x61, 0x72, 0x74, 0x69, 0x74, 0x69, 0x6f, 
  0x6e, 0x65, 0x64, 0x43, 0x61, 0x6c, 0x6c, 0x5f, 0x31, 0x3a, 0x30, 0x00, 
  0x02, 0x00, 0x00, 0x00, 0x01, 0x00, 0x00, 0x00, 0x01, 0x00, 0x00, 0x00, 
  0x6a, 0xf7, 0xff, 0xff, 0x00, 0x00, 0x00, 0x01, 0x18, 0x00, 0x00, 0x00, 
  0x20, 0x00, 0x00, 0x00, 0x40, 0x00, 0x00, 0x00, 0x06, 0x00, 0x00, 0x00, 
  0x00, 0x00, 0x00, 0x09, 0xa8, 0x00, 0x00, 0x00, 0x02, 0x00, 0x00, 0x00, 
  0xff, 0xff, 0xff, 0xff, 0x40, 0x00, 0x00, 0x00, 0x54, 0xf7, 0xff, 0xff, 
  0x08, 0x00, 0x00, 0x00, 0x14, 0x00, 0x00, 0x00, 0x01, 0x00, 0x00, 0x00, 
  0x80, 0xff, 0xff, 0xff, 0xff, 0xff, 0xff, 0xff, 0x00, 0x00, 0x00, 0x00, 
  0x01, 0x00, 0x00, 0x00, 0xb5, 0x70, 0x44, 0x3b, 0x6c, 0x00, 0x00, 0x00, 
  0x73, 0x65, 0x71, 0x75, 0x65, 0x6e, 0x74, 0x69, 0x61, 0x6c, 0x5f, 0x31, 
  0x2f, 0x62, 0x61, 0x74, 0x63, 0x68, 0x5f, 0x6e, 0x6f, 0x72, 0x6d, 0x61, 
  0x6c, 0x69, 0x7a, 0x61, 0x74, 0x69, 0x6f, 0x6e, 0x5f, 0x31, 0x2f, 0x62, 
  0x61, 0x74, 0x63, 0x68, 0x6e, 0x6f, 0x72, 0x6d, 0x2f, 0x6d, 0x75, 0x6c, 
  0x5f, 0x31, 0x3b, 0x73, 0x65, 0x71, 0x75, 0x65, 0x6e, 0x74, 0x69, 0x61, 
  0x6c, 0x5f, 0x31, 0x2f, 0x64, 0x65, 0x6e, 0x73, 0x65, 0x5f, 0x31, 0x5f, 
  0x32, 0x2f, 0x4d, 0x61, 0x74, 0x4d, 0x75, 0x6c, 0x3b, 0x73, 0x65, 0x71, 
  0x75, 0x65, 0x6e, 0x74, 0x69, 0x61, 0x6c, 0x5f, 0x31, 0x2f, 0x64, 0x65, 
  0x6e, 0x73, 0x65, 0x5f, 0x31, 0x5f, 0x32, 0x2f, 0x52, 0x65, 0x6c, 0x75, 
  0x00, 0x00, 0x00, 0x00, 0x02, 0x00, 0x00, 0x00, 0x01, 0x00, 0x00, 0x00, 
  0x40, 0x00, 0x00, 0x00, 0x3a, 0xf8, 0xff, 0xff, 0x00, 0x00, 0x00, 0x01, 
  0x18, 0x00, 0x00, 0x00, 0x20, 0x00, 0x00, 0x00, 0x40, 0x00, 0x00, 0x00, 
  0x05, 0x00, 0x00, 0x00, 0x00, 0x00, 0x00, 0x09, 0x70, 0x00, 0x00, 0x00, 
  0x02, 0x00, 0x00, 0x00, 0xff, 0xff, 0xff, 0xff, 0x40, 0x00, 0x00, 0x00, 
  0x24, 0xf8, 0xff, 0xff, 0x08, 0x00, 0x00, 0x00, 0x14, 0x00, 0x00, 0x00, 
  0x01, 0x00, 0x00, 0x00, 0x80, 0xff, 0xff, 0xff, 0xff, 0xff, 0xff, 0xff, 
  0x00, 0x00, 0x00, 0x00, 0x01, 0x00, 0x00, 0x00, 0x60, 0x2d, 0x66, 0x3b, 
  0x35, 0x00, 0x00, 0x00, 0x73, 0x65, 0x71, 0x75, 0x65, 0x6e, 0x74, 0x69, 
  0x61, 0x6c, 0x5f, 0x31, 0x2f, 0x64, 0x65, 0x6e, 0x73, 0x65, 0x5f, 0x31, 
  0x2f, 0x4d, 0x61, 0x74, 0x4d, 0x75, 0x6c, 0x3b, 0x73, 0x65, 0x71, 0x75, 
  0x65, 0x6e, 0x74, 0x69, 0x61, 0x6c, 0x5f, 0x31, 0x2f, 0x64, 0x65, 0x6e, 
  0x73, 0x65, 0x5f, 0x31, 0x2f, 0x52, 0x65, 0x6c, 0x75, 0x00, 0x00, 0x00, 
  0x02, 0x00, 0x00, 0x00, 0x01, 0x00, 0x00, 0x00, 0x40, 0x00, 0x00, 0x00, 
  0x4e, 0xf9, 0xff, 0xff, 0x00, 0x00, 0x00, 0x01, 0x14, 0x00, 0x00, 0x00, 
  0x28, 0x03, 0x00, 0x00, 0x04, 0x00, 0x00, 0x00, 0x00, 0x00, 0x00, 0x09, 
  0x34, 0x03, 0x00, 0x00, 0xac, 0xf8, 0xff, 0xff, 0x08, 0x00, 0x00, 0x00, 
  0x0c, 0x02, 0x00, 0x00, 0x40, 0x00, 0x00, 0x00, 0x00, 0x00, 0x00, 0x00, 
  0x00, 0x00, 0x00, 0x00, 0x00, 0x00, 0x00, 0x00, 0x00, 0x00, 0x00, 0x00, 
  0x00, 0x00, 0x00, 0x00, 0x00, 0x00, 0x00, 0x00, 0x00, 0x00, 0x00, 0x00, 
  0x00, 0x00, 0x00, 0x00, 0x00, 0x00, 0x00, 0x00, 0x00, 0x00, 0x00, 0x00, 
  0x00, 0x00, 0x00, 0x00, 0x00, 0x00, 0x00, 0x00, 0x00, 0x00, 0x00, 0x00, 
  0x00, 0x00, 0x00, 0x00, 0x00, 0x00, 0x00, 0x00, 0x00, 0x00, 0x00, 0x00, 
  0x00, 0x00, 0x00, 0x00, 0x00, 0x00, 0x00, 0x00, 0x00, 0x00, 0x00, 0x00, 
  0x00, 0x00, 0x00, 0x00, 0x00, 0x00, 0x00, 0x00, 0x00, 0x00, 0x00, 0x00, 
  0x00, 0x00, 0x00, 0x00, 0x00, 0x00, 0x00, 0x00, 0x00, 0x00, 0x00, 0x00, 
  0x00, 0x00, 0x00, 0x00, 0x00, 0x00, 0x00, 0x00, 0x00, 0x00, 0x00, 0x00, 
  0x00, 0x00, 0x00, 0x00, 0x00, 0x00, 0x00, 0x00, 0x00, 0x00, 0x00, 0x00, 
  0x00, 0x00, 0x00, 0x00, 0x00, 0x00, 0x00, 0x00, 0x00, 0x00, 0x00, 0x00, 
  0x00, 0x00, 0x00, 0x00, 0x00, 0x00, 0x00, 0x00, 0x00, 0x00, 0x00, 0x00, 
  0x00, 0x00, 0x00, 0x00, 0x00, 0x00, 0x00, 0x00, 0x00, 0x00, 0x00, 0x00, 
  0x00, 0x00, 0x00, 0x00, 0x00, 0x00, 0x00, 0x00, 0x00, 0x00, 0x00, 0x00, 
  0x00, 0x00, 0x00, 0x00, 0x00, 0x00, 0x00, 0x00, 0x00, 0x00, 0x00, 0x00, 
  0x00, 0x00, 0x00, 0x00, 0x00, 0x00, 0x00, 0x00, 0x00, 0x00, 0x00, 0x00, 
  0x00, 0x00, 0x00, 0x00, 0x00, 0x00, 0x00, 0x00, 0x00, 0x00, 0x00, 0x00, 
  0x00, 0x00, 0x00, 0x00, 0x00, 0x00, 0x00, 0x00, 0x00, 0x00, 0x00, 0x00, 
  0x00, 0x00, 0x00, 0x00, 0x00, 0x00, 0x00, 0x00, 0x00, 0x00, 0x00, 0x00, 
  0x00, 0x00, 0x00, 0x00, 0x00, 0x00, 0x00, 0x00, 0x00, 0x00, 0x00, 0x00, 
  0x00, 0x00, 0x00, 0x00, 0x00, 0x00, 0x00, 0x00, 0x00, 0x00, 0x00, 0x00, 
  0x00, 0x00, 0x00, 0x00, 0x00, 0x00, 0x00, 0x00, 0x00, 0x00, 0x00, 0x00, 
  0x00, 0x00, 0x00, 0x00, 0x00, 0x00, 0x00, 0x00, 0x00, 0x00, 0x00, 0x00, 
  0x00, 0x00, 0x00, 0x00, 0x00, 0x00, 0x00, 0x00, 0x00, 0x00, 0x00, 0x00, 
  0x00, 0x00, 0x00, 0x00, 0x00, 0x00, 0x00, 0x00, 0x00, 0x00, 0x00, 0x00, 
  0x00, 0x00, 0x00, 0x00, 0x00, 0x00, 0x00, 0x00, 0x00, 0x00, 0x00, 0x00, 
  0x00, 0x00, 0x00, 0x00, 0x00, 0x00, 0x00, 0x00, 0x00, 0x00, 0x00, 0x00, 
  0x00, 0x00, 0x00, 0x00, 0x00, 0x00, 0x00, 0x00, 0x00, 0x00, 0x00, 0x00, 
  0x00, 0x00, 0x00, 0x00, 0x00, 0x00, 0x00, 0x00, 0x00, 0x00, 0x00, 0x00, 
  0x00, 0x00, 0x00, 0x00, 0x00, 0x00, 0x00, 0x00, 0x00, 0x00, 0x00, 0x00, 
  0x00, 0x00, 0x00, 0x00, 0x00, 0x00, 0x00, 0x00, 0x00, 0x00, 0x00, 0x00, 
  0x00, 0x00, 0x00, 0x00, 0x00, 0x00, 0x00, 0x00, 0x00, 0x00, 0x00, 0x00, 
  0x00, 0x00, 0x00, 0x00, 0x00, 0x00, 0x00, 0x00, 0x00, 0x00, 0x00, 0x00, 
  0x00, 0x00, 0x00, 0x00, 0x00, 0x00, 0x00, 0x00, 0x00, 0x00, 0x00, 0x00, 
  0x00, 0x00, 0x00, 0x00, 0x00, 0x00, 0x00, 0x00, 0x00, 0x00, 0x00, 0x00, 
  0x00, 0x00, 0x00, 0x00, 0x00, 0x00, 0x00, 0x00, 0x00, 0x00, 0x00, 0x00, 
  0x00, 0x00, 0x00, 0x00, 0x00, 0x00, 0x00, 0x00, 0x00, 0x00, 0x00, 0x00, 
  0x00, 0x00, 0x00, 0x00, 0x00, 0x00, 0x00, 0x00, 0x00, 0x00, 0x00, 0x00, 
  0x00, 0x00, 0x00, 0x00, 0x00, 0x00, 0x00, 0x00, 0x00, 0x00, 0x00, 0x00, 
  0x00, 0x00, 0x00, 0x00, 0x00, 0x00, 0x00, 0x00, 0x00, 0x00, 0x00, 0x00, 
  0x00, 0x00, 0x00, 0x00, 0x00, 0x00, 0x00, 0x00, 0x00, 0x00, 0x00, 0x00, 
  0x00, 0x00, 0x00, 0x00, 0x00, 0x00, 0x00, 0x00, 0x00, 0x00, 0x00, 0x00, 
  0x00, 0x00, 0x00, 0x00, 0x00, 0x00, 0x00, 0x00, 0x40, 0x00, 0x00, 0x00, 
  0x74, 0x6c, 0x12, 0x3b, 0x89, 0xd6, 0x0b, 0x3b, 0xa3, 0x3e, 0xe7, 0x3a, 
  0xcc, 0xd4, 0xf7, 0x3a, 0xf3, 0xa5, 0xf7, 0x3a, 0x61, 0x84, 0x03, 0x3b, 
  0xcc, 0x24, 0xfe, 0x3a, 0xd3, 0xcb, 0x12, 0x3b, 0x00, 0x59, 0xf4, 0x3a, 
  0x00, 0x73, 0x06, 0x3b, 0x1c, 0xf0, 0xfd, 0x3a, 0xab, 0xac, 0xe9, 0x3a, 
  0xcc, 0x0a, 0x0f, 0x3b, 0xe7, 0xa6, 0x0c, 0x3b, 0xff, 0xb9, 0x07, 0x3b, 
  0xad, 0x57, 0xf0, 0x3a, 0x6a, 0x82, 0x0f, 0x3b, 0xba, 0x08, 0x09, 0x3b, 
  0xda, 0x86, 0x0f, 0x3b, 0xbf, 0x82, 0x06, 0x3b, 0xfb, 0x81, 0x0b, 0x3b, 
  0x5a, 0xbb, 0x09, 0x3b, 0x24, 0xc1, 0xe7, 0x3a, 0x71, 0xb5, 0xe0, 0x3a, 
  0x47, 0x37, 0xcf, 0x3a, 0x14, 0x73, 0xe9, 0x3a, 0x0a, 0x57, 0x12, 0x3b, 
  0xfb, 0x62, 0x06, 0x3b, 0x38, 0x96, 0xd5, 0x3a, 0x41, 0xb6, 0x0d, 0x3b, 
  0x38, 0xcf, 0x02, 0x3b, 0xd7, 0xc7, 0x0e, 0x3b, 0xb8, 0xdb, 0x10, 0x3b, 
  0xcc, 0xf4, 0x07, 0x3b, 0xa3, 0x2a, 0xe2, 0x3a, 0xc7, 0x38, 0x0e, 0x3b, 
  0xd1, 0x5c, 0x0c, 0x3b, 0xe7, 0x08, 0x12, 0x3b, 0x32, 0xf2, 0x02, 0x3b, 
  0x4f, 0x1d, 0xaf, 0x3a, 0x2f, 0xcd, 0x07, 0x3b, 0xf5, 0x04, 0x10, 0x3b, 
  0x9f, 0x3a, 0xed, 0x3a, 0x3d, 0xfd, 0x13, 0x3b, 0xac, 0x80, 0x11, 0x3b, 
  0x42, 0xff, 0x15, 0x3b, 0xf1, 0x9c, 0xc6, 0x3a, 0x35, 0x2e, 0xbf, 0x3a, 
  0x1c, 0x87, 0xf8, 0x3a, 0x6c, 0x86, 0x01, 0x3b, 0x06, 0x1f, 0x07, 0x3b, 
  0xc6, 0xae, 0xfe, 0x3a, 0x2c, 0x5c, 0x15, 0x3b, 0xfc, 0x10, 0x0b, 0x3b, 
  0x9c, 0x27, 0x15, 0x3b, 0x5f, 0xe8, 0x00, 0x3b, 0xb6, 0x36, 0x0a, 0x3b, 
  0xfb, 0x8f, 0x02, 0x3b, 0xe4, 0x84, 0x13, 0x3b, 0x7d, 0x3b, 0xc8, 0x3a, 
  0x4c, 0x1f, 0x01, 0x3b, 0x4c, 0x4d, 0x0c, 0x3b, 0x4f, 0x28, 0xf3, 0x3a, 
  0x2c, 0x6b, 0x14, 0x3b, 0x12, 0x00, 0x00, 0x00, 0x74, 0x66, 0x6c, 0x2e, 
  0x70, 0x73, 0x65, 0x75, 0x64, 0x6f, 0x5f, 0x71, 0x63, 0x6f, 0x6e, 0x73, 
  0x74, 0x32, 0x00, 0x00, 0x02, 0x00, 0x00, 0x00, 0x40, 0x00, 0x00, 0x00, 
  0x07, 0x00, 0x00, 0x00, 0xa6, 0xfc, 0xff, 0xff, 0x00, 0x00, 0x00, 0x01, 
  0x14, 0x00, 0x00, 0x00, 0x28, 0x03, 0x00, 0x00, 0x03, 0x00, 0x00, 0x00, 
  0x00, 0x00, 0x00, 0x09, 0x34, 0x03, 0x00, 0x00, 0x04, 0xfc, 0xff, 0xff, 
  0x08, 0x00, 0x00, 0x00, 0x0c, 0x02, 0x00, 0x00, 0x40, 0x00, 0x00, 0x00, 
  0x00, 0x00, 0x00, 0x00, 0x00, 0x00, 0x00, 0x00, 0x00, 0x00, 0x00, 0x00, 
  0x00, 0x00, 0x00, 0x00, 0x00, 0x00, 0x00, 0x00, 0x00, 0x00, 0x00, 0x00, 
  0x00, 0x00, 0x00, 0x00, 0x00, 0x00, 0x00, 0x00, 0x00, 0x00, 0x00, 0x00, 
  0x00, 0x00, 0x00, 0x00, 0x00, 0x00, 0x00, 0x00, 0x00, 0x00, 0x00, 0x00, 
  0x00, 0x00, 0x00, 0x00, 0x00, 0x00, 0x00, 0x00, 0x00, 0x00, 0x00, 0x00, 
  0x00, 0x00, 0x00, 0x00, 0x00, 0x00, 0x00, 0x00, 0x00, 0x00, 0x00, 0x00, 
  0x00, 0x00, 0x00, 0x00, 0x00, 0x00, 0x00, 0x00, 0x00, 0x00, 0x00, 0x00, 
  0x00, 0x00, 0x00, 0x00, 0x00, 0x00, 0x00, 0x00, 0x00, 0x00, 0x00, 0x00, 
  0x00, 0x00, 0x00, 0x00, 0x00, 0x00, 0x00, 0x00, 0x00, 0x00, 0x00, 0x00, 
  0x00, 0x00, 0x00, 0x00, 0x00, 0x00, 0x00, 0x00, 0x00, 0x00, 0x00, 0x00, 
  0x00, 0x00, 0x00, 0x00, 0x00, 0x00, 0x00, 0x00, 0x00, 0x00, 0x00, 0x00, 
  0x00, 0x00, 0x00, 0x00, 0x00, 0x00, 0x00, 0x00, 0x00, 0x00, 0x00, 0x00, 
  0x00, 0x00, 0x00, 0x00, 0x00, 0x00, 0x00, 0x00, 0x00, 0x00, 0x00, 0x00, 
  0x00, 0x00, 0x00, 0x00, 0x00, 0x00, 0x00, 0x00, 0x00, 0x00, 0x00, 0x00, 
  0x00, 0x00, 0x00, 0x00, 0x00, 0x00, 0x00, 0x00, 0x00, 0x00, 0x00, 0x00, 
  0x00, 0x00, 0x00, 0x00, 0x00, 0x00, 0x00, 0x00, 0x00, 0x00, 0x00, 0x00, 
  0x00, 0x00, 0x00, 0x00, 0x00, 0x00, 0x00, 0x00, 0x00, 0x00, 0x00, 0x00, 
  0x00, 0x00, 0x00, 0x00, 0x00, 0x00, 0x00, 0x00, 0x00, 0x00, 0x00, 0x00, 
  0x00, 0x00, 0x00, 0x00, 0x00, 0x00, 0x00, 0x00, 0x00, 0x00, 0x00, 0x00, 
  0x00, 0x00, 0x00, 0x00, 0x00, 0x00, 0x00, 0x00, 0x00, 0x00, 0x00, 0x00, 
  0x00, 0x00, 0x00, 0x00, 0x00, 0x00, 0x00, 0x00, 0x00, 0x00, 0x00, 0x00, 
  0x00, 0x00, 0x00, 0x00, 0x00, 0x00, 0x00, 0x00, 0x00, 0x00, 0x00, 0x00, 
  0x00, 0x00, 0x00, 0x00, 0x00, 0x00, 0x00, 0x00, 0x00, 0x00, 0x00, 0x00, 
  0x00, 0x00, 0x00, 0x00, 0x00, 0x00, 0x00, 0x00, 0x00, 0x00, 0x00, 0x00, 
  0x00, 0x00, 0x00, 0x00, 0x00, 0x00, 0x00, 0x00, 0x00, 0x00, 0x00, 0x00, 
  0x00, 0x00, 0x00, 0x00, 0x00, 0x00, 0x00, 0x00, 0x00, 0x00, 0x00, 0x00, 
  0x00, 0x00, 0x00, 0x00, 0x00, 0x00, 0x00, 0x00, 0x00, 0x00, 0x00, 0x00, 
  0x00, 0x00, 0x00, 0x00, 0x00, 0x00, 0x00, 0x00, 0x00, 0x00, 0x00, 0x00, 
  0x00, 0x00, 0x00, 0x00, 0x00, 0x00, 0x00, 0x00, 0x00, 0x00, 0x00, 0x00, 
  0x00, 0x00, 0x00, 0x00, 0x00, 0x00, 0x00, 0x00, 0x00, 0x00, 0x00, 0x00, 
  0x00, 0x00, 0x00, 0x00, 0x00, 0x00, 0x00, 0x00, 0x00, 0x00, 0x00, 0x00, 
  0x00, 0x00, 0x00, 0x00, 0x00, 0x00, 0x00, 0x00, 0x00, 0x00, 0x00, 0x00, 
  0x00, 0x00, 0x00, 0x00, 0x00, 0x00, 0x00, 0x00, 0x00, 0x00, 0x00, 0x00, 
  0x00, 0x00, 0x00, 0x00, 0x00, 0x00, 0x00, 0x00, 0x00, 0x00, 0x00, 0x00, 
  0x00, 0x00, 0x00, 0x00, 0x00, 0x00, 0x00, 0x00, 0x00, 0x00, 0x00, 0x00, 
  0x00, 0x00, 0x00, 0x00, 0x00, 0x00, 0x00, 0x00, 0x00, 0x00, 0x00, 0x00, 
  0x00, 0x00, 0x00, 0x00, 0x00, 0x00, 0x00, 0x00, 0x00, 0x00, 0x00, 0x00, 
  0x00, 0x00, 0x00, 0x00, 0x00, 0x00, 0x00, 0x00, 0x00, 0x00, 0x00, 0x00, 
  0x00, 0x00, 0x00, 0x00, 0x00, 0x00, 0x00, 0x00, 0x00, 0x00, 0x00, 0x00, 
  0x00, 0x00, 0x00, 0x00, 0x00, 0x00, 0x00, 0x00, 0x00, 0x00, 0x00, 0x00, 
  0x00, 0x00, 0x00, 0x00, 0x00, 0x00, 0x00, 0x00, 0x00, 0x00, 0x00, 0x00, 
  0x00, 0x00, 0x00, 0x00, 0x00, 0x00, 0x00, 0x00, 0x00, 0x00, 0x00, 0x00, 
  0x00, 0x00, 0x00, 0x00, 0x00, 0x00, 0x00, 0x00, 0x00, 0x00, 0x00, 0x00, 
  0x40, 0x00, 0x00, 0x00, 0x15, 0x18, 0xdc, 0x3a, 0x50, 0x4b, 0xdb, 0x3a, 
  0xb5, 0xfd, 0xd6, 0x3a, 0x94, 0xe1, 0xdd, 0x3a, 0x46, 0x09, 0xdd, 0x3a, 
  0x48, 0x1d, 0xdf, 0x3a, 0xdd, 0x86, 0xdd, 0x3a, 0xf0, 0xe2, 0xd9, 0x3a, 
  0x5c, 0x23, 0xd7, 0x3a, 0x03, 0x79, 0xd9, 0x3a, 0x07, 0x17, 0xd9, 0x3a, 
  0xbf, 0x16, 0xdb, 0x3a, 0x8d, 0xbc, 0xde, 0x3a, 0xfb, 0xf3, 0xdd, 0x3a, 
  0x0a, 0x73, 0xde, 0x3a, 0xfb, 0xe3, 0xdb, 0x3a, 0xec, 0xae, 0xdd, 0x3a, 
  0x08, 0x4a, 0xdb, 0x3a, 0x14, 0xa0, 0xdc, 0x3a, 0x49, 0xea, 0xd9, 0x3a, 
  0x9d, 0x39, 0xdb, 0x3a, 0xda, 0xbb, 0xd6, 0x3a, 0x2f, 0xf1, 0xde, 0x3a, 
  0xcb, 0x5c, 0xde, 0x3a, 0x9e, 0xe3, 0xda, 0x3a, 0xf6, 0x17, 0xdc, 0x3a, 
  0x30, 0x1d, 0xdd, 0x3a, 0xc1, 0xd6, 0xdd, 0x3a, 0xd2, 0xe9, 0xd7, 0x3a, 
  0xe8, 0x34, 0xdd, 0x3a, 0xfe, 0xb3, 0xdd, 0x3a, 0xb9, 0xd1, 0xdd, 0x3a, 
  0x74, 0xb7, 0xde, 0x3a, 0x8a, 0xff, 0xd9, 0x3a, 0x04, 0x13, 0xde, 0x3a, 
  0xee, 0x51, 0xd8, 0x3a, 0x83, 0xce, 0xd5, 0x3a, 0x62, 0x4e, 0xdf, 0x3a, 
  0x75, 0xd9, 0xdd, 0x3a, 0xa6, 0xd8, 0xd8, 0x3a, 0xfa, 0x47, 0xdf, 0x3a, 
  0x79, 0xd6, 0xdb, 0x3a, 0xcd, 0x11, 0xdb, 0x3a, 0xd3, 0x06, 0xdc, 0x3a, 
  0xa6, 0x18, 0xdd, 0x3a, 0xa6, 0x11, 0xda, 0x3a, 0x0e, 0x26, 0xdf, 0x3a, 
  0x4b, 0x92, 0xda, 0x3a, 0x1c, 0x11, 0xda, 0x3a, 0xac, 0xfe, 0xdb, 0x3a, 
  0x3b, 0x80, 0xde, 0x3a, 0xf3, 0x1f, 0xdf, 0x3a, 0x59, 0x76, 0xdc, 0x3a, 
  0xca, 0x7e, 0xde, 0x3a, 0xee, 0x8b, 0xde, 0x3a, 0x50, 0x4a, 0xdd, 0x3a, 
  0xed, 0xdb, 0xdb, 0x3a, 0xa9, 0x46, 0xdc, 0x3a, 0x29, 0x95, 0xd8, 0x3a, 
  0xfc, 0xc4, 0xdb, 0x3a, 0x63, 0xf8, 0xd7, 0x3a, 0x3f, 0x72, 0xde, 0x3a, 
  0x73, 0x07, 0xdd, 0x3a, 0xf7, 0xb0, 0xde, 0x3a, 0x12, 0x00, 0x00, 0x00, 
  0x74, 0x66, 0x6c, 0x2e, 0x70, 0x73, 0x65, 0x75, 0x64, 0x6f, 0x5f, 0x71, 
  0x63, 0x6f, 0x6e, 0x73, 0x74, 0x31, 0x00, 0x00, 0x02, 0x00, 0x00, 0x00, 
  0x40, 0x00, 0x00, 0x00, 0x40, 0x00, 0x00, 0x00, 0x00, 0x00, 0x16, 0x00, 
  0x1c, 0x00, 0x18, 0x00, 0x17, 0x00, 0x10, 0x00, 0x0c, 0x00, 0x08, 0x00, 
  0x00, 0x00, 0x00, 0x00, 0x00, 0x00, 0x07, 0x00, 0x16, 0x00, 0x00, 0x00, 
  0x00, 0x00, 0x00, 0x01, 0x14, 0x00, 0x00, 0x00, 0x34, 0x00, 0x00, 0x00, 
  0x02, 0x00, 0x00, 0x00, 0x00, 0x00, 0x00, 0x09, 0x40, 0x00, 0x00, 0x00, 
  0x74, 0xff, 0xff, 0xff, 0x08, 0x00, 0x00, 0x00, 0x14, 0x00, 0x00, 0x00, 
  0x01, 0x00, 0x00, 0x00, 0x00, 0x00, 0x00, 0x00, 0x00, 0x00, 0x00, 0x00, 
  0x00, 0x00, 0x00, 0x00, 0x01, 0x00, 0x00, 0x00, 0x8b, 0xf7, 0x1a, 0x3b, 
  0x11, 0x00, 0x00, 0x00, 0x74, 0x66, 0x6c, 0x2e, 0x70, 0x73, 0x65, 0x75, 
  0x64, 0x6f, 0x5f, 0x71, 0x63, 0x6f, 0x6e, 0x73, 0x74, 0x00, 0x00, 0x00, 
  0x02, 0x00, 0x00, 0x00, 0x01, 0x00, 0x00, 0x00, 0x40, 0x00, 0x00, 0x00, 
  0x00, 0x00, 0x16, 0x00, 0x20, 0x00, 0x1c, 0x00, 0x1b, 0x00, 0x14, 0x00, 
  0x10, 0x00, 0x0c, 0x00, 0x00, 0x00, 0x00, 0x00, 0x08, 0x00, 0x07, 0x00, 
  0x16, 0x00, 0x00, 0x00, 0x00, 0x00, 0x00, 0x01, 0x18, 0x00, 0x00, 0x00, 
  0x2c, 0x00, 0x00, 0x00, 0x48, 0x00, 0x00, 0x00, 0x01, 0x00, 0x00, 0x00, 
  0x00, 0x00, 0x00, 0x09, 0x64, 0x00, 0x00, 0x00, 0x02, 0x00, 0x00, 0x00, 
  0xff, 0xff, 0xff, 0xff, 0x07, 0x00, 0x00, 0x00, 0x0c, 0x00, 0x0c, 0x00, 
  0x00, 0x00, 0x00, 0x00, 0x08, 0x00, 0x04, 0x00, 0x0c, 0x00, 0x00, 0x00, 
  0x08, 0x00, 0x00, 0x00, 0x10, 0x00, 0x00, 0x00, 0x01, 0x00, 0x00, 0x00, 
  0x80, 0xff, 0xff, 0xff, 0xff, 0xff, 0xff, 0xff, 0x01, 0x00, 0x00, 0x00, 
  0x72, 0x76, 0x80, 0x3b, 0x21, 0x00, 0x00, 0x00, 0x73, 0x65, 0x72, 0x76, 
  0x69, 0x6e, 0x67, 0x5f, 0x64, 0x65, 0x66, 0x61, 0x75, 0x6c, 0x74, 0x5f, 
  0x6b, 0x65, 0x72, 0x61, 0x73, 0x5f, 0x74, 0x65, 0x6e, 0x73, 0x6f, 0x72, 
  0x5f, 0x31, 0x35, 0x3a, 0x30, 0x00, 0x00, 0x00, 0x02, 0x00, 0x00, 0x00, 
  0x01, 0x00, 0x00, 0x00, 0x07, 0x00, 0x00, 0x00, 0x01, 0x00, 0x00, 0x00, 
  0x10, 0x00, 0x00, 0x00, 0x0c, 0x00, 0x10, 0x00, 0x0f, 0x00, 0x00, 0x00, 
  0x08, 0x00, 0x04, 0x00, 0x0c, 0x00, 0x00, 0x00, 0x09, 0x00, 0x00, 0x00, 
  0x04, 0x00, 0x00, 0x00, 0x00, 0x00, 0x00, 0x09
  };
unsigned int sin_predictor_model_len = 8048;
